{
  "version": "1.0",
  "truncation": null,
  "padding": null,
  "added_tokens": [
    {
      "id": 0,
      "special": true,
      "content": "<|endoftext|>",
      "single_word": false,
      "lstrip": false,
      "rstrip": false,
      "normalized": false
    },
    {
      "id": 1,
      "special": true,
      "content": "<|padding|>",
      "single_word": false,
      "lstrip": false,
      "rstrip": false,
      "normalized": false
    },
    {
      "id": 2,
      "special": true,
      "content": "    ",
      "single_word": false,
      "lstrip": false,
      "rstrip": false,
      "normalized": false
    },
    {
      "id": 3,
      "special": true,
      "content": "  ",
      "single_word": false,
      "lstrip": false,
      "rstrip": false,
      "normalized": false
    }
  ],
  "normalizer": {
    "type": "NFC"
  },
  "pre_tokenizer": {
    "type": "ByteLevel",
    "add_prefix_space": true,
    "trim_offsets": true
  },
  "post_processor": {
    "type": "ByteLevel",
    "add_prefix_space": true,
    "trim_offsets": true
  },
  "decoder": {
    "type": "ByteLevel",
    "add_prefix_space": true,
    "trim_offsets": true
  },
  "model": {
    "dropout": null,
    "unk_token": null,
    "continuing_subword_prefix": null,
    "end_of_word_suffix": null,
    "fuse_unk": false,
    "vocab": {
      "<|endoftext|>": 0,
      "<|padding|>": 1,
      "    ": 2,
      "  ": 3,
      "!": 4,
      "\"": 5,
      "#": 6,
      "$": 7,
      "%": 8,
      "&": 9,
      "'": 10,
      "(": 11,
      ")": 12,
      "*": 13,
      "+": 14,
      ",": 15,
      "-": 16,
      ".": 17,
      "/": 18,
      "0": 19,
      "1": 20,
      "2": 21,
      "3": 22,
      "4": 23,
      "5": 24,
      "6": 25,
      "7": 26,
      "8": 27,
      "9": 28,
      ":": 29,
      ";": 30,
      "<": 31,
      "=": 32,
      ">": 33,
      "?": 34,
      "@": 35,
      "A": 36,
      "B": 37,
      "C": 38,
      "D": 39,
      "E": 40,
      "F": 41,
      "G": 42,
      "H": 43,
      "I": 44,
      "J": 45,
      "K": 46,
      "L": 47,
      "M": 48,
      "N": 49,
      "O": 50,
      "P": 51,
      "Q": 52,
      "R": 53,
      "S": 54,
      "T": 55,
      "U": 56,
      "V": 57,
      "W": 58,
      "X": 59,
      "Y": 60,
      "Z": 61,
      "[": 62,
      "\\": 63,
      "]": 64,
      "^": 65,
      "_": 66,
      "`": 67,
      "a": 68,
      "b": 69,
      "c": 70,
      "d": 71,
      "e": 72,
      "f": 73,
      "g": 74,
      "h": 75,
      "i": 76,
      "j": 77,
      "k": 78,
      "l": 79,
      "m": 80,
      "n": 81,
      "o": 82,
      "p": 83,
      "q": 84,
      "r": 85,
      "s": 86,
      "t": 87,
      "u": 88,
      "v": 89,
      "w": 90,
      "x": 91,
      "y": 92,
      "z": 93,
      "{": 94,
      "|": 95,
      "}": 96,
      "~": 97,
      "¡": 98,
      "¢": 99,
      "£": 100,
      "¤": 101,
      "¥": 102,
      "¦": 103,
      "§": 104,
      "¨": 105,
      "©": 106,
      "ª": 107,
      "«": 108,
      "¬": 109,
      "®": 110,
      "¯": 111,
      "°": 112,
      "±": 113,
      "²": 114,
      "³": 115,
      "´": 116,
      "µ": 117,
      "¶": 118,
      "·": 119,
      "¸": 120,
      "¹": 121,
      "º": 122,
      "»": 123,
      "¼": 124,
      "½": 125,
      "¾": 126,
      "¿": 127,
      "Â": 128,
      "Ã": 129,
      "Ä": 130,
      "Å": 131,
      "Æ": 132,
      "Ç": 133,
      "È": 134,
      "É": 135,
      "Ê": 136,
      "Ë": 137,
      "Ì": 138,
      "Í": 139,
      "Î": 140,
      "Ï": 141,
      "Ð": 142,
      "Ñ": 143,
      "Ò": 144,
      "Ó": 145,
      "Ô": 146,
      "Õ": 147,
      "Ö": 148,
      "×": 149,
      "Ø": 150,
      "Ù": 151,
      "Ú": 152,
      "Û": 153,
      "Ü": 154,
      "Ý": 155,
      "Þ": 156,
      "ß": 157,
      "à": 158,
      "á": 159,
      "â": 160,
      "ã": 161,
      "ä": 162,
      "å": 163,
      "æ": 164,
      "ç": 165,
      "è": 166,
      "é": 167,
      "ê": 168,
      "ë": 169,
      "ì": 170,
      "í": 171,
      "î": 172,
      "ï": 173,
      "ð": 174,
      "ñ": 175,
      "ó": 176,
      "ô": 177,
      "ā": 178,
      "Ă": 179,
      "ă": 180,
      "Ą": 181,
      "ą": 182,
      "Ć": 183,
      "ć": 184,
      "Ĉ": 185,
      "ĉ": 186,
      "Ċ": 187,
      "č": 188,
      "Ď": 189,
      "ď": 190,
      "Đ": 191,
      "đ": 192,
      "Ē": 193,
      "ē": 194,
      "Ĕ": 195,
      "ĕ": 196,
      "Ė": 197,
      "ė": 198,
      "Ę": 199,
      "ę": 200,
      "Ě": 201,
      "ě": 202,
      "Ĝ": 203,
      "ĝ": 204,
      "Ğ": 205,
      "ğ": 206,
      "Ġ": 207,
      "ġ": 208,
      "Ģ": 209,
      "ģ": 210,
      "Ĥ": 211,
      "ĥ": 212,
      "Ħ": 213,
      "ħ": 214,
      "Ĩ": 215,
      "ĩ": 216,
      "Ī": 217,
      "ī": 218,
      "Ĭ": 219,
      "ĭ": 220,
      "Į": 221,
      "į": 222,
      "İ": 223,
      "ı": 224,
      "Ĳ": 225,
      "ĳ": 226,
      "Ĵ": 227,
      "ĵ": 228,
      "Ķ": 229,
      "ķ": 230,
      "ĸ": 231,
      "Ĺ": 232,
      "ĺ": 233,
      "Ļ": 234,
      "ļ": 235,
      "Ľ": 236,
      "ľ": 237,
      "Ŀ": 238,
      "ŀ": 239,
      "Ł": 240,
      "ł": 241,
      "Ń": 242,
      "er": 243,
      "en": 244,
      "Ġd": 245,
      "Ġa": 246,
      "in": 247,
      "es": 248,
      "on": 249,
      "Ġt": 250,
      "Ġs": 251,
      "Ġp": 252,
      "Ġc": 253,
      "re": 254,
      "an": 255,
      "Ġl": 256,
      "or": 257,
      "ti": 258,
      "he": 259,
      "is": 260,
      "ar": 261,
      "un": 262,
      "it": 263,
      "Ġde": 264,
      "al": 265,
      "Ġm": 266,
      "ch": 267,
      "Ġe": 268,
      "te": 269,
      "as": 270,
      "Ġf": 271,
      "Ġw": 272,
      "Ġo": 273,
      "Ġb": 274,
      "Ġthe": 275,
      "os": 276,
      "at": 277,
      "Ġin": 278,
      "ur": 279,
      "le": 280,
      "Ġn": 281,
      "ro": 282,
      "ent": 283,
      "ie": 284,
      "Ã©": 285,
      "Ġan": 286,
      "us": 287,
      "ic": 288,
      "qu": 289,
      "om": 290,
      "il": 291,
      "Ġh": 292,
      "Ġv": 293,
      "Ġun": 294,
      "ing": 295,
      "ĠS": 296,
      "el": 297,
      "ra": 298,
      "Ġg": 299,
      "âĢ": 300,
      "Ġto": 301,
      "tion": 302,
      "ol": 303,
      "Ġof": 304,
      "ed": 305,
      "Ġla": 306,
      "ĠA": 307,
      "Ġand": 308,
      "ci": 309,
      "ta": 310,
      "ut": 311,
      "Ġqu": 312,
      "im": 313,
      "et": 314,
      "id": 315,
      "ad": 316,
      "Ġy": 317,
      "ĠI": 318,
      "Ġth": 319,
      "Ġcon": 320,
      "ig": 321,
      "am": 322,
      "ĠC": 323,
      "Ġre": 324,
      "ich": 325,
      "ĠM": 326,
      "ĠT": 327,
      "ter": 328,
      "Ġen": 329,
      "ĠP": 330,
      "ĠD": 331,
      "ul": 332,
      "ir": 333,
      "Ġal": 334,
      "Ġdi": 335,
      "ĠB": 336,
      "Ġ(": 337,
      "Ġr": 338,
      "ve": 339,
      "ers": 340,
      "Ġ1": 341,
      "ĠE": 342,
      "la": 343,
      "Ġes": 344,
      "Ġse": 345,
      "ce": 346,
      "ot": 347,
      "ĠL": 348,
      "Ġis": 349,
      "ion": 350,
      "em": 351,
      "Ġbe": 352,
      "âĢĻ": 353,
      "to": 354,
      "and": 355,
      "Ġpro": 356,
      "ung": 357,
      "ĠÃ": 358,
      "Ġcom": 359,
      "ĠF": 360,
      "ou": 361,
      "Ġle": 362,
      "um": 363,
      "ation": 364,
      "ge": 365,
      "ĠG": 366,
      "Ġque": 367,
      "ess": 368,
      "ri": 369,
      "ten": 370,
      "ĠR": 371,
      "Ġfor": 372,
      "ab": 373,
      "our": 374,
      "Ġ2": 375,
      "Ã³": 376,
      "Ġder": 377,
      "Ġdes": 378,
      "end": 379,
      "Ġdel": 380,
      "Ġpar": 381,
      "ĠW": 382,
      "ere": 383,
      "ĠH": 384,
      "Ġon": 385,
      "Ġsu": 386,
      "ly": 387,
      "ct": 388,
      "Ġund": 389,
      "Ã¤": 390,
      "ow": 391,
      "Ã¼": 392,
      "ia": 393,
      "od": 394,
      "Ġel": 395,
      "ĠN": 396,
      "st": 397,
      "ĠĠ": 398,
      "Ġdie": 399,
      "pp": 400,
      "ver": 401,
      "io": 402,
      "ay": 403,
      "Ġz": 404,
      "ine": 405,
      "ant": 406,
      "ac": 407,
      "Ġk": 408,
      "Ġet": 409,
      "Ġau": 410,
      "Ġthat": 411,
      "est": 412,
      "Ġas": 413,
      "ĠV": 414,
      "ff": 415,
      "Ġj": 416,
      "ĠK": 417,
      "ag": 418,
      "ith": 419,
      "..": 420,
      "Ġper": 421,
      "ÃŃ": 422,
      "Ġwh": 423,
      "Ġpr": 424,
      "ate": 425,
      "op": 426,
      "og": 427,
      "00": 428,
      "ment": 429,
      "Ã³n": 430,
      "ier": 431,
      "Ġex": 432,
      "Ġor": 433,
      "de": 434,
      "Ġst": 435,
      "Ġne": 436,
      "se": 437,
      "th": 438,
      "ber": 439,
      "ist": 440,
      "tic": 441,
      "Ġit": 442,
      "iz": 443,
      "hr": 444,
      "iv": 445,
      "ente": 446,
      "ĠâĢ": 447,
      "Ġwith": 448,
      "ĠJ": 449,
      "Ġim": 450,
      "Ġno": 451,
      "Ġha": 452,
      "pe": 453,
      "Ġso": 454,
      "Ã¡": 455,
      "ill": 456,
      "Ġein": 457,
      "der": 458,
      "ĠU": 459,
      "ne": 460,
      "ĠO": 461,
      "ans": 462,
      "ass": 463,
      "ens": 464,
      "if": 465,
      "oc": 466,
      "ke": 467,
      "ach": 468,
      "ma": 469,
      "Ġch": 470,
      "Ġme": 471,
      "che": 472,
      "ĠIn": 473,
      "ĠÃł": 474,
      "ib": 475,
      "ts": 476,
      "ud": 477,
      "ien": 478,
      "ell": 479,
      "ue": 480,
      "are": 481,
      "Ġyou": 482,
      "ll": 483,
      "und": 484,
      "Ġat": 485,
      "me": 486,
      "pr": 487,
      "ore": 488,
      "au": 489,
      "per": 490,
      "Ġhe": 491,
      "Ġare": 492,
      "Ġil": 493,
      "for": 494,
      "ind": 495,
      "Ġlos": 496,
      "Ġwe": 497,
      "tiv": 498,
      "Ġles": 499,
      "Ã¨": 500,
      "Ã¶": 501,
      "Ġac": 502,
      "ure": 503,
      "ciÃ³n": 504,
      "lic": 505,
      "ĠThe": 506,
      "li": 507,
      "tr": 508,
      "Ġ19": 509,
      "ap": 510,
      "ort": 511,
      "ann": 512,
      "Ġche": 513,
      "Ġab": 514,
      "ale": 515,
      "all": 516,
      "du": 517,
      "Ġma": 518,
      "que": 519,
      "ard": 520,
      "lich": 521,
      "ite": 522,
      "rom": 523,
      "Ġtr": 524,
      "ire": 525,
      "ht": 526,
      "ub": 527,
      "Ġer": 528,
      "Ġuna": 529,
      "Ġus": 530,
      "Ġwas": 531,
      "Ġi": 532,
      "zion": 533,
      "ies": 534,
      "up": 535,
      "gen": 536,
      "Ġcomp": 537,
      "Ġest": 538,
      "ck": 539,
      "Ġver": 540,
      "Ġ3": 541,
      "ity": 542,
      "ted": 543,
      "Ġall": 544,
      "ok": 545,
      "Ġden": 546,
      "ug": 547,
      "Ġad": 548,
      "ĠĠĠĠ": 549,
      "Ġnot": 550,
      "Ġres": 551,
      "Ġlo": 552,
      "Ġson": 553,
      "be": 554,
      "Ã©s": 555,
      "Ġpor": 556,
      "ous": 557,
      "sch": 558,
      "av": 559,
      "ĠAn": 560,
      "Ġco": 561,
      "lo": 562,
      "Ġlas": 563,
      "Ġdu": 564,
      "den": 565,
      "Ġby": 566,
      "Ġvon": 567,
      "Ġ\"": 568,
      "con": 569,
      "Ġser": 570,
      "Ġzu": 571,
      "ato": 572,
      "Ã¼r": 573,
      "01": 574,
      ").": 575,
      "mp": 576,
      "Ġman": 577,
      "icht": 578,
      "we": 579,
      "Ġthis": 580,
      "ĠÂ": 581,
      "Ġhave": 582,
      "ĠÃ©": 583,
      "Ġdis": 584,
      "ati": 585,
      "do": 586,
      "Ġtra": 587,
      "Ġar": 588,
      "Ġsh": 589,
      "ost": 590,
      "ust": 591,
      "Ãł": 592,
      "Ġfrom": 593,
      "Ġsi": 594,
      "enti": 595,
      "Ġpl": 596,
      "ome": 597,
      "uch": 598,
      "ction": 599,
      "Ġdo": 600,
      "ang": 601,
      "Ġpre": 602,
      "ĠZ": 603,
      "Ġ.": 604,
      "ide": 605,
      "ual": 606,
      "Ġcan": 607,
      "so": 608,
      "za": 609,
      "ces": 610,
      "Ġent": 611,
      "Ġte": 612,
      "iti": 613,
      "out": 614,
      "ĠRe": 615,
      "Ġmit": 616,
      "Ġfa": 617,
      "ran": 618,
      "Ġra": 619,
      "iss": 620,
      "Ġcont": 621,
      "Ġauf": 622,
      "Ġist": 623,
      "her": 624,
      "ip": 625,
      "Ġpour": 626,
      "uld": 627,
      "res": 628,
      "ord": 629,
      "ign": 630,
      "Ġinter": 631,
      "Ġyour": 632,
      "Ġam": 633,
      "fer": 634,
      "ĠUn": 635,
      "Ġsp": 636,
      "ile": 637,
      "cl": 638,
      "Ġpara": 639,
      "Ġ-": 640,
      "Ġda": 641,
      "ste": 642,
      "form": 643,
      "ica": 644,
      "ient": 645,
      "ĠTh": 646,
      "one": 647,
      "zione": 648,
      "'s": 649,
      "),": 650,
      "Ġge": 651,
      "ÃŃa": 652,
      "age": 653,
      "Ġpe": 654,
      "ru": 655,
      "ado": 656,
      "ice": 657,
      "Ġdem": 658,
      "Ġsur": 659,
      "mer": 660,
      "Ġapp": 661,
      "Ġ4": 662,
      "able": 663,
      "Ġ,": 664,
      "aus": 665,
      "Ġcons": 666,
      "ft": 667,
      "ins": 668,
      "ese": 669,
      "Ġdas": 670,
      "ons": 671,
      "âĢĿ": 672,
      "co": 673,
      "tions": 674,
      "Ã±": 675,
      "ven": 676,
      "ement": 677,
      "Ġpos": 678,
      "erson": 679,
      "Ġwill": 680,
      "va": 681,
      "chen": 682,
      "ase": 683,
      "mo": 684,
      "ze": 685,
      "ata": 686,
      "iel": 687,
      "Ġsol": 688,
      "ight": 689,
      "ĠLe": 690,
      "di": 691,
      "Ġaus": 692,
      "ĠdÃ©": 693,
      "les": 694,
      "ble": 695,
      "men": 696,
      "Ġ5": 697,
      "cion": 698,
      "tre": 699,
      "ose": 700,
      "ance": 701,
      "Ġhas": 702,
      "art": 703,
      "Ġimp": 704,
      "ise": 705,
      "Ġpas": 706,
      "ando": 707,
      "ĠEn": 708,
      "ĠY": 709,
      "ong": 710,
      "ak": 711,
      "ante": 712,
      "com": 713,
      "Ġ201": 714,
      "bre": 715,
      "ano": 716,
      "ork": 717,
      "Ġgo": 718,
      "Ã©r": 719,
      "ĠBe": 720,
      "ĠÃ¨": 721,
      "Ġnon": 722,
      "tra": 723,
      "ĠfÃ¼r": 724,
      "cial": 725,
      "cess": 726,
      "Ġbut": 727,
      "Ġag": 728,
      "ern": 729,
      "cia": 730,
      "Ġune": 731,
      "Ġli": 732,
      "ations": 733,
      "ors": 734,
      "Ġsich": 735,
      "Ġcl": 736,
      "ari": 737,
      "ĠVer": 738,
      "Ġdans": 739,
      "Ġmo": 740,
      "...": 741,
      "Ġob": 742,
      "je": 743,
      "ĠâĢľ": 744,
      "ĠSe": 745,
      "ĠĊ": 746,
      "Ġdur": 747,
      "ĠSch": 748,
      "ah": 749,
      "Ġqui": 750,
      "Ġnicht": 751,
      "ial": 752,
      "Ġwir": 753,
      "fic": 754,
      "ungen": 755,
      "ph": 756,
      "Ã©e": 757,
      "ould": 758,
      "no": 759,
      "Ġ:": 760,
      "Ġsa": 761,
      "ond": 762,
      "enn": 763,
      "ther": 764,
      "Ġ200": 765,
      "ence": 766,
      "ear": 767,
      "rit": 768,
      "Ġcol": 769,
      "idad": 770,
      "Ġsta": 771,
      "Ġcu": 772,
      "gra": 773,
      "ont": 774,
      "Ġgr": 775,
      "ĠWe": 776,
      "ina": 777,
      "Ġperson": 778,
      "Ġeine": 779,
      "ult": 780,
      "Ã¡s": 781,
      "ally": 782,
      "olog": 783,
      "ĠDe": 784,
      "ame": 785,
      "urs": 786,
      "19": 787,
      "ĠPro": 788,
      "ben": 789,
      "int": 790,
      "Ġpo": 791,
      "ada": 792,
      "elle": 793,
      "ime": 794,
      "Ġfin": 795,
      "amp": 796,
      "Ġro": 797,
      "ÃŁ": 798,
      "ĠLa": 799,
      "Ġcar": 800,
      "ungs": 801,
      "Ġsc": 802,
      "Ġmy": 803,
      "Ġsch": 804,
      "Ġpu": 805,
      "ents": 806,
      "ĠCh": 807,
      "til": 808,
      "aciÃ³n": 809,
      "Ġpres": 810,
      "min": 811,
      "Ġout": 812,
      "ied": 813,
      "Ġmod": 814,
      "Ġdella": 815,
      "Ġpla": 816,
      "Ġthey": 817,
      "its": 818,
      "ĠâĢĵ": 819,
      "Ġfe": 820,
      "ĠSt": 821,
      "ater": 822,
      "ast": 823,
      "Ġgen": 824,
      "Ġreg": 825,
      "ark": 826,
      "ĠAr": 827,
      "Ġ6": 828,
      "mente": 829,
      "tig": 830,
      "tim": 831,
      "tit": 832,
      "nen": 833,
      "vo": 834,
      "fe": 835,
      "Ġhab": 836,
      "ĠSie": 837,
      "Ġu": 838,
      "ack": 839,
      "vel": 840,
      "Ġone": 841,
      "Ġwer": 842,
      "ink": 843,
      "Ġwhich": 844,
      "Ġmore": 845,
      "tern": 846,
      "Ġup": 847,
      "uer": 848,
      "Ġind": 849,
      "oll": 850,
      "Ġaut": 851,
      "ĠrÃ©": 852,
      "ary": 853,
      "ser": 854,
      "Ġter": 855,
      "Ġtheir": 856,
      "ive": 857,
      "Ġhis": 858,
      "hen": 859,
      "Ġdon": 860,
      "uf": 861,
      "Ġher": 862,
      "ĠAl": 863,
      "ated": 864,
      "Ġcor": 865,
      "emp": 866,
      "Ã¤n": 867,
      "Ġprodu": 868,
      "vers": 869,
      "ura": 870,
      "Ġauch": 871,
      "go": 872,
      "Ġmon": 873,
      "pos": 874,
      "ux": 875,
      "ges": 876,
      "ms": 877,
      "ild": 878,
      "Ã©n": 879,
      "gan": 880,
      "ento": 881,
      "hl": 882,
      "Ġce": 883,
      "par": 884,
      "ick": 885,
      "ger": 886,
      "ales": 887,
      "Ġany": 888,
      "ain": 889,
      "gor": 890,
      "Ġwerden": 891,
      "ahr": 892,
      "Ġcomo": 893,
      "ca": 894,
      "The": 895,
      "ito": 896,
      "ene": 897,
      "ute": 898,
      "bs": 899,
      "ĠDie": 900,
      "Ġcre": 901,
      "uss": 902,
      "ĠEr": 903,
      "ico": 904,
      "ni": 905,
      "Ġmay": 906,
      "Ġcas": 907,
      "tive": 908,
      "era": 909,
      "Ġ'": 910,
      "Ġabout": 911,
      "Ġques": 912,
      "amb": 913,
      "itÃ©": 914,
      "ys": 915,
      "Ġals": 916,
      "Ġ7": 917,
      "Ġpol": 918,
      "ical": 919,
      "ĠQ": 920,
      "ook": 921,
      "Ġalso": 922,
      "ner": 923,
      "Ġsome": 924,
      "âĢ¦": 925,
      "ĠĠĠĠĠĠĠĠ": 926,
      "Ġserv": 927,
      "ER": 928,
      "Ġave": 929,
      "Ãª": 930,
      "kt": 931,
      "Ġrec": 932,
      "ĠEs": 933,
      "Ġplus": 934,
      "Ġspe": 935,
      "Ġoder": 936,
      "ian": 937,
      "ress": 938,
      "Ġnel": 939,
      "ros": 940,
      "Ġdiff": 941,
      "ings": 942,
      "pl": 943,
      "ues": 944,
      "ced": 945,
      "--": 946,
      "ĠIt": 947,
      "ior": 948,
      "Ġwho": 949,
      "tis": 950,
      "Ġsie": 951,
      "ĠCom": 952,
      "Ġour": 953,
      "rib": 954,
      "Ġou": 955,
      "Ãº": 956,
      "ays": 957,
      "Ġins": 958,
      "iÃ³n": 959,
      "Ġcomm": 960,
      "ĠÃ¼": 961,
      "Ġop": 962,
      "ĊĊ": 963,
      "igh": 964,
      "na": 965,
      "ty": 966,
      "ille": 967,
      "etz": 968,
      "ob": 969,
      "In": 970,
      "Ġ8": 971,
      "amente": 972,
      "Ġje": 973,
      "Ġother": 974,
      "âĢĵ": 975,
      "itÃł": 976,
      "ĠÂ«": 977,
      "ĠNe": 978,
      "hal": 979,
      "Ġesta": 980,
      "ree": 981,
      "ino": 982,
      "ren": 983,
      "Ġwork": 984,
      "man": 985,
      "ita": 986,
      "cre": 987,
      "Ġtime": 988,
      "now": 989,
      "tes": 990,
      "ld": 991,
      "Ġvers": 992,
      "cip": 993,
      "ik": 994,
      "Ġdire": 995,
      "Ġwere": 996,
      "Ġif": 997,
      "Ġsind": 998,
      "ios": 999,
      "tel": 1000,
      "une": 1001,
      "Ġsy": 1002,
      "Ġhad": 1003,
      "Ġdies": 1004,
      "Ġwie": 1005,
      "ario": 1006,
      "igen": 1007,
      "Ġmed": 1008,
      "Ġ9": 1009,
      "ry": 1010,
      "iter": 1011,
      "ido": 1012,
      "Ġvous": 1013,
      "por": 1014,
      "Ġwould": 1015,
      "Ġpi": 1016,
      "Ġvis": 1017,
      "Ġbeen": 1018,
      "Ġthere": 1019,
      "ĠHe": 1020,
      "tro": 1021,
      "Ġbet": 1022,
      "ques": 1023,
      "gl": 1024,
      "ciones": 1025,
      "Ġparti": 1026,
      "Ġmar": 1027,
      "ione": 1028,
      "Ġbei": 1029,
      "tell": 1030,
      "cep": 1031,
      "Ġgro": 1032,
      "ora": 1033,
      "Ġ10": 1034,
      "ĠmÃ¡s": 1035,
      "hn": 1036,
      "ible": 1037,
      "Ġ18": 1038,
      "ric": 1039,
      "wer": 1040,
      "Ġav": 1041,
      "Ġwar": 1042,
      "ĠÃ¼ber": 1043,
      "atur": 1044,
      "Ġget": 1045,
      "wo": 1046,
      "ular": 1047,
      "ischen": 1048,
      ".,": 1049,
      "Ã¹": 1050,
      "Ġbes": 1051,
      "ĠâĢŀ": 1052,
      "Ġev": 1053,
      "Ġpub": 1054,
      "ero": 1055,
      "Ġke": 1056,
      "Ġtrans": 1057,
      "ĠGe": 1058,
      "ĠÂ»": 1059,
      "az": 1060,
      "Ġvor": 1061,
      "Ġrela": 1062,
      "Ġprov": 1063,
      "Ġinv": 1064,
      "jo": 1065,
      "ade": 1066,
      "Ġgra": 1067,
      "Ġbl": 1068,
      "Ġdass": 1069,
      "bl": 1070,
      "Ġeff": 1071,
      "leg": 1072,
      "fin": 1073,
      "ali": 1074,
      "oug": 1075,
      "unt": 1076,
      "Ġum": 1077,
      "ON": 1078,
      "Ġwhen": 1079,
      "Ġprim": 1080,
      "ette": 1081,
      "orm": 1082,
      "Ġnach": 1083,
      "ĠTe": 1084,
      "Ġthan": 1085,
      "tain": 1086,
      "formation": 1087,
      "ory": 1088,
      "itt": 1089,
      "Ã¨re": 1090,
      "cu": 1091,
      "Ã¶n": 1092,
      "ates": 1093,
      "Ġincl": 1094,
      "Ã¨s": 1095,
      "Ġmin": 1096,
      "Ġavec": 1097,
      "Ġph": 1098,
      "__": 1099,
      "....": 1100,
      "ish": 1101,
      "riv": 1102,
      "Ġcome": 1103,
      "âĢľ": 1104,
      "ions": 1105,
      "ba": 1106,
      "anz": 1107,
      "ategor": 1108,
      "Ġwird": 1109,
      "Ġtro": 1110,
      "Ġfo": 1111,
      "cc": 1112,
      "Ġreal": 1113,
      "ono": 1114,
      "uy": 1115,
      "Ġlike": 1116,
      "Ġhat": 1117,
      "Ġcap": 1118,
      "mb": 1119,
      "ores": 1120,
      "Ġass": 1121,
      "Ġsus": 1122,
      "Ġwhat": 1123,
      "Ġmuch": 1124,
      "ĠEl": 1125,
      "Ġnew": 1126,
      "Ġform": 1127,
      "Ġcer": 1128,
      "ES": 1129,
      "Ġdei": 1130,
      "Ã©es": 1131,
      "ui": 1132,
      "Ġits": 1133,
      "Ġyear": 1134,
      "Ġ[": 1135,
      "iste": 1136,
      "Ġve": 1137,
      "enden": 1138,
      "Ġpa": 1139,
      "Ġover": 1140,
      "ori": 1141,
      "led": 1142,
      "Ġ199": 1143,
      "cer": 1144,
      "EN": 1145,
      "Ġoff": 1146,
      "pro": 1147,
      "als": 1148,
      "ider": 1149,
      "Ġele": 1150,
      "Ġeiner": 1151,
      "ause": 1152,
      "Ġposs": 1153,
      "Ġfir": 1154,
      "very": 1155,
      "Ġdurch": 1156,
      "Ġmi": 1157,
      "da": 1158,
      "La": 1159,
      "tÃ©": 1160,
      "Ġknow": 1161,
      "Ġcos": 1162,
      "Ġges": 1163,
      "Ġprof": 1164,
      "ĠAs": 1165,
      "Ġthem": 1166,
      "endo": 1167,
      "ĠSp": 1168,
      "Ã¡n": 1169,
      "ath": 1170,
      "Ġed": 1171,
      "Ġ0": 1172,
      "dos": 1173,
      "Ġvo": 1174,
      "gg": 1175,
      "ivers": 1176,
      "pres": 1177,
      "ments": 1178,
      "Ġmet": 1179,
      "ende": 1180,
      "Ġsim": 1181,
      "ede": 1182,
      "ĠPar": 1183,
      "ĠMar": 1184,
      "gu": 1185,
      "Ġnu": 1186,
      "ĠCon": 1187,
      "Ġ=": 1188,
      "Ġsein": 1189,
      "vis": 1190,
      "ida": 1191,
      "cts": 1192,
      "own": 1193,
      "ĠIl": 1194,
      "Ġval": 1195,
      "ace": 1196,
      "ais": 1197,
      "'t": 1198,
      "Ġcal": 1199,
      "Ġentre": 1200,
      "ugh": 1201,
      "reat": 1202,
      "keit": 1203,
      "Ġbec": 1204,
      "ank": 1205,
      "Ġinto": 1206,
      "Ġonly": 1207,
      "fter": 1208,
      "wn": 1209,
      "Ġdal": 1210,
      "Ġmis": 1211,
      "Ġsin": 1212,
      "lichen": 1213,
      "ants": 1214,
      "Ġzur": 1215,
      "ĠSo": 1216,
      "fl": 1217,
      "cha": 1218,
      "Ġjust": 1219,
      "ful": 1220,
      "Ġuse": 1221,
      "oth": 1222,
      "Ġtu": 1223,
      "ely": 1224,
      "20": 1225,
      "Ġprop": 1226,
      "Ġsub": 1227,
      "ras": 1228,
      "erv": 1229,
      "Ġdist": 1230,
      "att": 1231,
      "Ġvol": 1232,
      "Ã¼n": 1233,
      "Ġfam": 1234,
      "Ã¤t": 1235,
      "Ġhow": 1236,
      "Ġloc": 1237,
      "ados": 1238,
      "Ġ20": 1239,
      "Ġten": 1240,
      "Ġfun": 1241,
      "isch": 1242,
      "urn": 1243,
      "ĠThis": 1244,
      "ange": 1245,
      "ep": 1246,
      "ople": 1247,
      "ĠAus": 1248,
      "ique": 1249,
      "ron": 1250,
      "ational": 1251,
      "Ġresp": 1252,
      "get": 1253,
      "xt": 1254,
      "Ġsont": 1255,
      "Ġdell": 1256,
      "Ġneed": 1257,
      "Ġpass": 1258,
      "ple": 1259,
      "Ã²": 1260,
      "Ġmen": 1261,
      "Ġâ": 1262,
      "Ġalle": 1263,
      "ĠAb": 1264,
      "anti": 1265,
      "cul": 1266,
      "Ġsono": 1267,
      "ĠEin": 1268,
      "si": 1269,
      "En": 1270,
      "Ġta": 1271,
      "Ġbas": 1272,
      "Ġconf": 1273,
      "Ġ15": 1274,
      "els": 1275,
      "iento": 1276,
      "AN": 1277,
      "zioni": 1278,
      "Ġgu": 1279,
      "gr": 1280,
      "Ġutil": 1281,
      "uen": 1282,
      "sp": 1283,
      "ours": 1284,
      "AR": 1285,
      "Ġgener": 1286,
      "tica": 1287,
      "Ġcr": 1288,
      "Ġris": 1289,
      "enta": 1290,
      "Ġsal": 1291,
      "10": 1292,
      "ution": 1293,
      "utz": 1294,
      "Ġnum": 1295,
      "ters": 1296,
      "000": 1297,
      "Ġsupp": 1298,
      "Ġthese": 1299,
      "Ġich": 1300,
      "cis": 1301,
      "Ġmost": 1302,
      "ating": 1303,
      "Ġexp": 1304,
      "mi": 1305,
      "ctor": 1306,
      "ett": 1307,
      "iew": 1308,
      "gram": 1309,
      "ai": 1310,
      "Ġbr": 1311,
      "Ġstud": 1312,
      "Ġacc": 1313,
      "Ġcent": 1314,
      "ition": 1315,
      "land": 1316,
      "Ġwor": 1317,
      "cid": 1318,
      "IN": 1319,
      "eren": 1320,
      "Ġthro": 1321,
      "ats": 1322,
      "Ġshe": 1323,
      "Ġsign": 1324,
      "ĠFor": 1325,
      "ps": 1326,
      "ĠSta": 1327,
      "ĠNo": 1328,
      "Ġ12": 1329,
      "dition": 1330,
      "ession": 1331,
      "urop": 1332,
      "liche": 1333,
      "Ġfirst": 1334,
      "Ġpeople": 1335,
      "red": 1336,
      "Th": 1337,
      "Ġwur": 1338,
      "ific": 1339,
      "cri": 1340,
      "ures": 1341,
      "ss": 1342,
      "ĠpiÃ¹": 1343,
      "ĠGr": 1344,
      "Ġeinen": 1345,
      "Âł": 1346,
      "elt": 1347,
      "Ġfl": 1348,
      "ili": 1349,
      "omm": 1350,
      "Ġnur": 1351,
      "iam": 1352,
      "Ġimport": 1353,
      "bar": 1354,
      "Ġexper": 1355,
      "br": 1356,
      "olo": 1357,
      "ĠkÃ¶n": 1358,
      "aten": 1359,
      "Ġkann": 1360,
      "alis": 1361,
      "Ġalla": 1362,
      "los": 1363,
      "chn": 1364,
      "Ġap": 1365,
      "Ġzum": 1366,
      "ough": 1367,
      "Ġess": 1368,
      "Ġfind": 1369,
      "Ġtut": 1370,
      "ires": 1371,
      "ĠFran": 1372,
      "Ġbo": 1373,
      "ĠX": 1374,
      "otre": 1375,
      "ww": 1376,
      "Ġtwo": 1377,
      "ana": 1378,
      "izz": 1379,
      "Ġtemp": 1380,
      "Ġsuch": 1381,
      "itu": 1382,
      "old": 1383,
      "ige": 1384,
      "Ġste": 1385,
      "ils": 1386,
      "Ġcomple": 1387,
      "isten": 1388,
      "ily": 1389,
      "anto": 1390,
      "elf": 1391,
      "Ġbien": 1392,
      "Ġact": 1393,
      "Ġemp": 1394,
      "aut": 1395,
      "ek": 1396,
      "Ġunter": 1397,
      "ton": 1398,
      "ĠGes": 1399,
      "dic": 1400,
      "pa": 1401,
      "iten": 1402,
      "Ġorgan": 1403,
      "arn": 1404,
      "ĠOr": 1405,
      "cht": 1406,
      "Ġeinem": 1407,
      "ert": 1408,
      "Ġbis": 1409,
      "Ġqual": 1410,
      "ature": 1411,
      "tivo": 1412,
      "ex": 1413,
      "forma": 1414,
      "Ġho": 1415,
      "Ġdelle": 1416,
      "Ġthrough": 1417,
      "OR": 1418,
      "Ġsul": 1419,
      "ative": 1420,
      "An": 1421,
      "Ġdar": 1422,
      "gel": 1423,
      "ved": 1424,
      "Le": 1425,
      "urch": 1426,
      "Ġaux": 1427,
      "Ã¶r": 1428,
      "ves": 1429,
      "cted": 1430,
      "ife": 1431,
      "iert": 1432,
      "Ġgrand": 1433,
      "Ġhel": 1434,
      "fÃ¼": 1435,
      "ility": 1436,
      "Ġthen": 1437,
      "ola": 1438,
      "ices": 1439,
      "ici": 1440,
      "Ġmem": 1441,
      "fore": 1442,
      "aux": 1443,
      "mit": 1444,
      "ages": 1445,
      "Ġlong": 1446,
      "Ġ&": 1447,
      "hre": 1448,
      "entes": 1449,
      "Ġmake": 1450,
      "Ġback": 1451,
      "!!": 1452,
      "Ġfil": 1453,
      "Ġinst": 1454,
      "mos": 1455,
      "erg": 1456,
      "201": 1457,
      "ines": 1458,
      "Ġprin": 1459,
      "Ġcould": 1460,
      "ga": 1461,
      "orn": 1462,
      "Ġcontin": 1463,
      "rie": 1464,
      "ock": 1465,
      "isti": 1466,
      "Ġevery": 1467,
      "Ġmat": 1468,
      "Ġbel": 1469,
      "Ġpart": 1470,
      "lie": 1471,
      "Ġchar": 1472,
      "stem": 1473,
      "Ġers": 1474,
      "Ġtout": 1475,
      "Ġwell": 1476,
      "pt": 1477,
      "Ġsaid": 1478,
      "Ġparte": 1479,
      "Ġvery": 1480,
      "ho": 1481,
      "vent": 1482,
      "11": 1483,
      "ĠEx": 1484,
      "Ġid": 1485,
      "rol": 1486,
      "Ġfr": 1487,
      "anno": 1488,
      "Ġleg": 1489,
      "ower": 1490,
      "TI": 1491,
      "OS": 1492,
      "Ã¼ck": 1493,
      "Ġmais": 1494,
      "Ġlook": 1495,
      "Ġwhere": 1496,
      "eth": 1497,
      "Ġeste": 1498,
      "ĠAnd": 1499,
      "Ġ198": 1500,
      "Ġmus": 1501,
      "Ġnom": 1502,
      "ities": 1503,
      "ane": 1504,
      "Ġhim": 1505,
      "Ġnos": 1506,
      "Ġ16": 1507,
      "Ġrequ": 1508,
      "ara": 1509,
      "Ġcook": 1510,
      "Ġafter": 1511,
      "ĠAd": 1512,
      "Â»": 1513,
      "Ġsee": 1514,
      "200": 1515,
      "ave": 1516,
      "Ġ17": 1517,
      "Ġproble": 1518,
      "Ġshould": 1519,
      "Ġinformation": 1520,
      "tif": 1521,
      "ĠCo": 1522,
      "cy": 1523,
      "ini": 1524,
      "uto": 1525,
      "Ġanche": 1526,
      "ĠMe": 1527,
      "Ġconc": 1528,
      "Ã§": 1529,
      "ische": 1530,
      "ets": 1531,
      "let": 1532,
      "iene": 1533,
      "enza": 1534,
      "Ġ14": 1535,
      "ĠaÃ±": 1536,
      "vol": 1537,
      "Ġnoch": 1538,
      "Ġaff": 1539,
      "Ã¤r": 1540,
      "Ġmag": 1541,
      "act": 1542,
      "Ġci": 1543,
      "ital": 1544,
      "Ġ13": 1545,
      "Ġdep": 1546,
      "line": 1547,
      "AL": 1548,
      "ode": 1549,
      "ambi": 1550,
      "Ġpero": 1551,
      "yp": 1552,
      "oro": 1553,
      "Ġmal": 1554,
      "Ġdiffer": 1555,
      "ĠPr": 1556,
      "18": 1557,
      "ait": 1558,
      "Ġend": 1559,
      "ix": 1560,
      "Ġbecause": 1561,
      "app": 1562,
      "ĠkÃ¶nnen": 1563,
      "Ġperm": 1564,
      "ward": 1565,
      "gt": 1566,
      "vi": 1567,
      "nis": 1568,
      "abe": 1569,
      "AS": 1570,
      "tiva": 1571,
      "Ġequ": 1572,
      "Ġdid": 1573,
      "zo": 1574,
      "Ġmom": 1575,
      "ogra": 1576,
      "cto": 1577,
      "ler": 1578,
      "geb": 1579,
      "Ġseg": 1580,
      "Ġeven": 1581,
      "pon": 1582,
      "Ġway": 1583,
      "Ġmany": 1584,
      "ator": 1585,
      "Ġ/": 1586,
      "Ġpartic": 1587,
      "auf": 1588,
      "Ã´": 1589,
      "ration": 1590,
      "atz": 1591,
      "Ġuns": 1592,
      "ister": 1593,
      "Ġpublic": 1594,
      "Ġgood": 1595,
      "Ġsecon": 1596,
      "ited": 1597,
      "12": 1598,
      "other": 1599,
      "fr": 1600,
      "onn": 1601,
      "gli": 1602,
      "Ġbus": 1603,
      "Ġaber": 1604,
      "duc": 1605,
      "Ġnous": 1606,
      "med": 1607,
      "eit": 1608,
      "uta": 1609,
      "Ġused": 1610,
      "ĠMa": 1611,
      "Ġlar": 1612,
      "ĠTr": 1613,
      "Ġpra": 1614,
      "Ġcur": 1615,
      "cur": 1616,
      "Re": 1617,
      "ĠDer": 1618,
      "ĠIf": 1619,
      "inter": 1620,
      "ĠNew": 1621,
      "velop": 1622,
      ".\"": 1623,
      "Ġhaben": 1624,
      "ĠYou": 1625,
      "ĠMit": 1626,
      "ista": 1627,
      "iet": 1628,
      "Ġthink": 1629,
      "tet": 1630,
      "Ġhum": 1631,
      "ĠOn": 1632,
      "jor": 1633,
      "IS": 1634,
      "titu": 1635,
      "Ġsobre": 1636,
      "oss": 1637,
      "ĠPl": 1638,
      "blic": 1639,
      "mes": 1640,
      "Ġfra": 1641,
      "\",": 1642,
      "15": 1643,
      "antes": 1644,
      "the": 1645,
      "El": 1646,
      "Ġpod": 1647,
      "bor": 1648,
      "inn": 1649,
      "Ġnow": 1650,
      "Ġsm": 1651,
      "Ġhelp": 1652,
      "ense": 1653,
      "Ġclass": 1654,
      "Un": 1655,
      "use": 1656,
      "ument": 1657,
      "cias": 1658,
      "Ġyears": 1659,
      "Ġcommun": 1660,
      "ĠDE": 1661,
      "bo": 1662,
      "ows": 1663,
      "anta": 1664,
      "Ġread": 1665,
      "enz": 1666,
      "round": 1667,
      "stru": 1668,
      "ĠSh": 1669,
      "Ġplay": 1670,
      "Ġihr": 1671,
      "cher": 1672,
      "Ġprocess": 1673,
      "ĠWh": 1674,
      "Ġvotre": 1675,
      "Ġadd": 1676,
      "alk": 1677,
      "Ġsti": 1678,
      "Ġgli": 1679,
      "ween": 1680,
      "Ġsite": 1681,
      "Ġdoes": 1682,
      "hed": 1683,
      "ule": 1684,
      "Ġwurde": 1685,
      "Ġrep": 1686,
      "ious": 1687,
      "II": 1688,
      "Ġhand": 1689,
      "ull": 1690,
      "af": 1691,
      "Ġbu": 1692,
      "ool": 1693,
      "ĠMan": 1694,
      "Ġappro": 1695,
      "cio": 1696,
      "ĠCar": 1697,
      "ÃŃs": 1698,
      "ivid": 1699,
      "ĠPh": 1700,
      "Ġ;": 1701,
      "tico": 1702,
      "ieren": 1703,
      "ye": 1704,
      "Ġem": 1705,
      "och": 1706,
      "encia": 1707,
      "Ġactiv": 1708,
      "teil": 1709,
      "Ġmehr": 1710,
      "unk": 1711,
      "Ġprincip": 1712,
      "ĠVor": 1713,
      "Ġ30": 1714,
      "//": 1715,
      "Ġide": 1716,
      "hip": 1717,
      "ĠAuf": 1718,
      "Ġ11": 1719,
      "uel": 1720,
      "Ġagain": 1721,
      "adas": 1722,
      "arbe": 1723,
      "Ġsto": 1724,
      "lin": 1725,
      "ello": 1726,
      "Ġbro": 1727,
      "conom": 1728,
      "Ġcour": 1729,
      "alt": 1730,
      "Ġfre": 1731,
      "glich": 1732,
      "Ġdom": 1733,
      "ĠprÃ©": 1734,
      "ize": 1735,
      "day": 1736,
      "iche": 1737,
      "Ġconta": 1738,
      "Ġdown": 1739,
      "IC": 1740,
      "tical": 1741,
      "Ġbetween": 1742,
      "ender": 1743,
      "leich": 1744,
      "pre": 1745,
      "30": 1746,
      "car": 1747,
      "tend": 1748,
      "Ġava": 1749,
      "Ġhigh": 1750,
      "ĠDas": 1751,
      "50": 1752,
      "inal": 1753,
      "Ġmil": 1754,
      "Ġlie": 1755,
      "Ġsuper": 1756,
      "ĠmÃ©": 1757,
      "ission": 1758,
      "Ġlim": 1759,
      "ctive": 1760,
      "Ġfar": 1761,
      "ctions": 1762,
      "Ġmer": 1763,
      "tt": 1764,
      "Ġthose": 1765,
      "Ġstr": 1766,
      "Ġsocial": 1767,
      "Ġoper": 1768,
      "Ġinclud": 1769,
      "Al": 1770,
      "tens": 1771,
      "col": 1772,
      "Ġbeing": 1773,
      "Ġfac": 1774,
      "Ġsolo": 1775,
      "ĠJe": 1776,
      "Die": 1777,
      "lect": 1778,
      "Ġprote": 1779,
      "neh": 1780,
      "Ġmade": 1781,
      "ones": 1782,
      "ken": 1783,
      "Ġfoll": 1784,
      "Ġ197": 1785,
      "ĠQu": 1786,
      "lig": 1787,
      "Ġera": 1788,
      "://": 1789,
      "Ġsens": 1790,
      "ein": 1791,
      "Ġsom": 1792,
      "Ġdisc": 1793,
      "bers": 1794,
      "ĠJo": 1795,
      "ulti": 1796,
      "ĠGo": 1797,
      "Ġset": 1798,
      "----": 1799,
      "ĠJahr": 1800,
      "Ġown": 1801,
      "amos": 1802,
      "Ġinf": 1803,
      "Ġhist": 1804,
      "iness": 1805,
      "Ġvi": 1806,
      "Ġni": 1807,
      "TE": 1808,
      "Ġjed": 1809,
      "esse": 1810,
      "ĠPer": 1811,
      "Ġcomme": 1812,
      "tal": 1813,
      "cle": 1814,
      "Ġconsider": 1815,
      "ĠBes": 1816,
      "bra": 1817,
      "Ġliv": 1818,
      "schen": 1819,
      "Ġunder": 1820,
      "Ġ!": 1821,
      "way": 1822,
      "Ġbest": 1823,
      "of": 1824,
      "Ġmes": 1825,
      "ving": 1826,
      "vern": 1827,
      "yn": 1828,
      "ja": 1829,
      "dern": 1830,
      "ĠRo": 1831,
      "ually": 1832,
      "RE": 1833,
      "Ġwenn": 1834,
      "erst": 1835,
      "Ġplace": 1836,
      "Ġhere": 1837,
      "Ġpot": 1838,
      "Ġquel": 1839,
      "ĠAll": 1840,
      "azione": 1841,
      "Ġref": 1842,
      "Ġsitu": 1843,
      "Ġgi": 1844,
      "ason": 1845,
      "Ġinforma": 1846,
      "fol": 1847,
      "po": 1848,
      "Ġ$": 1849,
      "ites": 1850,
      "ĠSu": 1851,
      "Ġpers": 1852,
      "Il": 1853,
      "Ġintern": 1854,
      "Ġsame": 1855,
      "Ġexperien": 1856,
      "Categor": 1857,
      "=\"": 1858,
      "ĠBer": 1859,
      "Ġpop": 1860,
      "Ġsel": 1861,
      "ject": 1862,
      "Ġses": 1863,
      "Ġprogram": 1864,
      "oria": 1865,
      "ks": 1866,
      "Ġeffe": 1867,
      "xim": 1868,
      "Ãªme": 1869,
      "Ġeach": 1870,
      "Ġbefore": 1871,
      "eter": 1872,
      "Ġcette": 1873,
      "Ġdata": 1874,
      "iones": 1875,
      "Ġdevelop": 1876,
      "Ġdue": 1877,
      "oi": 1878,
      "zu": 1879,
      "uro": 1880,
      "ĠLes": 1881,
      "aria": 1882,
      "ars": 1883,
      "Ġright": 1884,
      "Ġmater": 1885,
      "ĠPol": 1886,
      "illa": 1887,
      "ena": 1888,
      "ommen": 1889,
      "Ġya": 1890,
      "ambiÃ©n": 1891,
      "esso": 1892,
      "ĠÃª": 1893,
      "Ġwant": 1894,
      "ĠHer": 1895,
      "ude": 1896,
      "lam": 1897,
      "Ġesc": 1898,
      "ĠUnter": 1899,
      "ĠIntern": 1900,
      "ather": 1901,
      "Â«": 1902,
      "Ġcou": 1903,
      "Ġespe": 1904,
      "Ġnuest": 1905,
      "Ġmain": 1906,
      "Ġgreat": 1907,
      "We": 1908,
      "ĠUnivers": 1909,
      "Ġ?": 1910,
      "Ġdev": 1911,
      "Ġmark": 1912,
      "stell": 1913,
      "ĠBl": 1914,
      "Ġvari": 1915,
      "ĠIs": 1916,
      "____": 1917,
      "tag": 1918,
      "Ġenc": 1919,
      "Ġnella": 1920,
      "Ġlet": 1921,
      "Ġcamp": 1922,
      "ever": 1923,
      "Ġspeci": 1924,
      "Ġcir": 1925,
      "ĠMon": 1926,
      "16": 1927,
      "iment": 1928,
      "Ġpost": 1929,
      "view": 1930,
      "ash": 1931,
      "arch": 1932,
      "rate": 1933,
      "Ġdiese": 1934,
      "Ġanal": 1935,
      "Ġann": 1936,
      "alth": 1937,
      "AC": 1938,
      "ting": 1939,
      "Ġ|": 1940,
      "Ġai": 1941,
      "ÂŃ": 1942,
      "cor": 1943,
      "Ġtake": 1944,
      "ĠBut": 1945,
      "fahr": 1946,
      "ology": 1947,
      "Ġfait": 1948,
      "bsite": 1949,
      "Ġlib": 1950,
      "roll": 1951,
      "ouse": 1952,
      "17": 1953,
      "lease": 1954,
      "Ġquesto": 1955,
      "urg": 1956,
      "Ġdesign": 1957,
      "ently": 1958,
      "Ġmas": 1959,
      "itz": 1960,
      "14": 1961,
      "Ġbre": 1962,
      "Ġuno": 1963,
      "Ġcontra": 1964,
      "Ġlife": 1965,
      "Ġday": 1966,
      "Ġfue": 1967,
      "heit": 1968,
      "Ġven": 1969,
      "cciÃ³n": 1970,
      "cho": 1971,
      "Ġincre": 1972,
      "Ġtodo": 1973,
      "lev": 1974,
      "zi": 1975,
      "Ġans": 1976,
      "Ġpriv": 1977,
      "iger": 1978,
      "Ġcomun": 1979,
      "Ã¢": 1980,
      "Ġfollow": 1981,
      "Ġcho": 1982,
      "Ġdefin": 1983,
      "aft": 1984,
      "Ġ...": 1985,
      "ibt": 1986,
      "Ġgar": 1987,
      "13": 1988,
      "Ġworld": 1989,
      "Ġx": 1990,
      "Ġ+": 1991,
      "Ġdro": 1992,
      "Se": 1993,
      "Ġstate": 1994,
      "bil": 1995,
      "ized": 1996,
      "ccess": 1997,
      "king": 1998,
      "rag": 1999,
      "ĠBr": 2000,
      "Ġ24": 2001,
      "Ġboth": 2002,
      "ĠUS": 2003,
      "Ã¤hr": 2004,
      "Ġhier": 2005,
      "Ġindivid": 2006,
      ".âĢĿ": 2007,
      "Ġorig": 2008,
      "Ã©d": 2009,
      "ĠEurop": 2010,
      "Ġdieser": 2011,
      "gun": 2012,
      "Ġric": 2013,
      "bst": 2014,
      "Ġlog": 2015,
      "uis": 2016,
      "chi": 2017,
      "Ġdann": 2018,
      "mpre": 2019,
      "Ġmach": 2020,
      "Ġocc": 2021,
      "oma": 2022,
      "cent": 2023,
      "Ġpat": 2024,
      "uj": 2025,
      "Ġdam": 2026,
      "zie": 2027,
      "Ġrespons": 2028,
      "lio": 2029,
      "Ġconse": 2030,
      "Ġforma": 2031,
      "vor": 2032,
      "sche": 2033,
      "ism": 2034,
      "Ġcontr": 2035,
      "Ã¬": 2036,
      "ona": 2037,
      "Ġpoint": 2038,
      "Ġsou": 2039,
      "Ġcui": 2040,
      "Ġsystem": 2041,
      "atta": 2042,
      "Ġsoll": 2043,
      "ying": 2044,
      "iner": 2045,
      "lÃ©": 2046,
      "Ġvom": 2047,
      "ased": 2048,
      "ĠDes": 2049,
      "ĠAmer": 2050,
      "mal": 2051,
      "Ġcompr": 2052,
      "Ġdifferent": 2053,
      "ield": 2054,
      "wend": 2055,
      "Ġ25": 2056,
      "ador": 2057,
      "minist": 2058,
      "Ġhac": 2059,
      "assen": 2060,
      "Ġessere": 2061,
      "sy": 2062,
      "ides": 2063,
      "Ãºn": 2064,
      "Ġpresent": 2065,
      "Ġstand": 2066,
      "oto": 2067,
      "Ġpued": 2068,
      "Ġbook": 2069,
      "ott": 2070,
      "Ġcual": 2071,
      "Ġmol": 2072,
      "aron": 2073,
      "unto": 2074,
      "ĊĠĠĠĠĠĠĠĠ": 2075,
      "Ã¤l": 2076,
      "orte": 2077,
      "tad": 2078,
      "ĠReg": 2079,
      "ahl": 2080,
      "ĠIm": 2081,
      "elles": 2082,
      "ĠDies": 2083,
      "ĠÃ©tÃ©": 2084,
      "ĠÃªtre": 2085,
      "ĠFl": 2086,
      "ande": 2087,
      "ume": 2088,
      "ĠSte": 2089,
      "Ġpri": 2090,
      "val": 2091,
      "ches": 2092,
      "Ġdoc": 2093,
      "ĠMed": 2094,
      "Ġir": 2095,
      "Ġstill": 2096,
      "ĠSi": 2097,
      "iod": 2098,
      "ness": 2099,
      "Ġidenti": 2100,
      "Ġpersonal": 2101,
      "Ġmust": 2102,
      "Ġfran": 2103,
      "Ġsay": 2104,
      "Ġvia": 2105,
      ".)": 2106,
      "199": 2107,
      "cept": 2108,
      "aire": 2109,
      "any": 2110,
      "abil": 2111,
      "mon": 2112,
      "Ġhom": 2113,
      "ĠTra": 2114,
      "pla": 2115,
      "Ġjus": 2116,
      "mento": 2117,
      "ĠCol": 2118,
      "bes": 2119,
      "ove": 2120,
      "Ġtem": 2121,
      "ener": 2122,
      "Ġgiv": 2123,
      "Ġorder": 2124,
      "ĠFra": 2125,
      "\".": 2126,
      "Ġont": 2127,
      "Ġwhile": 2128,
      "ibil": 2129,
      "ison": 2130,
      "Ġvie": 2131,
      "Ġfu": 2132,
      "ĠAm": 2133,
      "reg": 2134,
      "vir": 2135,
      "agn": 2136,
      "Ġweb": 2137,
      "ela": 2138,
      "etzt": 2139,
      "Ġreally": 2140,
      "Ġtak": 2141,
      "Ġline": 2142,
      "Ġdir": 2143,
      "Ġ196": 2144,
      "Ġfound": 2145,
      "Ġusing": 2146,
      "mas": 2147,
      "Ġlead": 2148,
      "ĠChr": 2149,
      "mail": 2150,
      "Ġzw": 2151,
      "Ġcontrol": 2152,
      "unden": 2153,
      "chÃ©": 2154,
      "Ġmill": 2155,
      "Ġmuy": 2156,
      "ĠPre": 2157,
      "Ġfaire": 2158,
      "cn": 2159,
      "Ġweek": 2160,
      "org": 2161,
      "work": 2162,
      "Ġopp": 2163,
      "voir": 2164,
      "Ġplan": 2165,
      "Ġsow": 2166,
      "arly": 2167,
      "Ġna": 2168,
      "anc": 2169,
      "less": 2170,
      "Ġwo": 2171,
      "inen": 2172,
      "uc": 2173,
      "ĠZeit": 2174,
      "ias": 2175,
      "Ġdos": 2176,
      "ĠSy": 2177,
      "ral": 2178,
      "ĠFe": 2179,
      "Ġfut": 2180,
      "lement": 2181,
      "ĠWir": 2182,
      "fo": 2183,
      "rei": 2184,
      "ĠCl": 2185,
      "isation": 2186,
      "Ġgroup": 2187,
      "Ġcorre": 2188,
      "imo": 2189,
      "Ġrece": 2190,
      "Ġchild": 2191,
      "ourn": 2192,
      "Ġeines": 2193,
      "eld": 2194,
      "ctiv": 2195,
      "Ġcult": 2196,
      "**": 2197,
      "TA": 2198,
      "pect": 2199,
      "port": 2200,
      "pend": 2201,
      "cta": 2202,
      "Ġshow": 2203,
      "read": 2204,
      "ware": 2205,
      "fen": 2206,
      "tru": 2207,
      "etto": 2208,
      "Ġnumber": 2209,
      "Ġcomb": 2210,
      "Ġlui": 2211,
      "ategorie": 2212,
      "ĠtambiÃ©n": 2213,
      "Ã¨me": 2214,
      "atto": 2215,
      "Ġunser": 2216,
      "Ġfinal": 2217,
      "ances": 2218,
      "Ġcolle": 2219,
      "Ġgew": 2220,
      "Ġpens": 2221,
      "halten": 2222,
      "ĠprÃ©s": 2223,
      "row": 2224,
      "ioni": 2225,
      "tz": 2226,
      "Ġcle": 2227,
      "Ġsig": 2228,
      "ĠNach": 2229,
      "chie": 2230,
      "ody": 2231,
      "kl": 2232,
      "Ġtit": 2233,
      "Ġcli": 2234,
      "soci": 2235,
      "Ġtip": 2236,
      "tics": 2237,
      "ways": 2238,
      "ĠsÃ©": 2239,
      "........": 2240,
      "Ã¶glich": 2241,
      "sta": 2242,
      "ences": 2243,
      "Ġcare": 2244,
      "press": 2245,
      "ĠKon": 2246,
      "alls": 2247,
      "esta": 2248,
      "Ġfav": 2249,
      "Ġpuede": 2250,
      "tique": 2251,
      "Ġfig": 2252,
      "Ġapplic": 2253,
      ",\"": 2254,
      "Ġcontinu": 2255,
      "Ġservice": 2256,
      "Ġhay": 2257,
      "ample": 2258,
      "ÃŃas": 2259,
      "omen": 2260,
      "ames": 2261,
      "isp": 2262,
      "Ġleur": 2263,
      "ĠmÃªme": 2264,
      "ends": 2265,
      "Ġaussi": 2266,
      "âĢĶ": 2267,
      "ross": 2268,
      "Ġotr": 2269,
      "Ã¤ch": 2270,
      "Ġtraba": 2271,
      "Ġpeut": 2272,
      "emos": 2273,
      "opp": 2274,
      "Ġdivers": 2275,
      "25": 2276,
      "try": 2277,
      "ĠaÃ±os": 2278,
      "ffe": 2279,
      "Ġbeg": 2280,
      "Ġret": 2281,
      "Ġ100": 2282,
      "tice": 2283,
      "ĠGer": 2284,
      "reich": 2285,
      "rÃ©": 2286,
      "gi": 2287,
      "Ġhome": 2288,
      "Ġfact": 2289,
      "</": 2290,
      "Ġrem": 2291,
      "Ġnue": 2292,
      "Ġtoo": 2293,
      "ables": 2294,
      "Ġzwe": 2295,
      "agement": 2296,
      "ics": 2297,
      "idades": 2298,
      "Ġtechn": 2299,
      "cional": 2300,
      "osa": 2301,
      "ident": 2302,
      "ption": 2303,
      "UR": 2304,
      "Ġcookies": 2305,
      "ĠDaten": 2306,
      "Ġrapp": 2307,
      "Ġtre": 2308,
      "wh": 2309,
      "Ġsecond": 2310,
      "ĠestÃ¡": 2311,
      "Ġoffer": 2312,
      "mbre": 2313,
      "OM": 2314,
      "clus": 2315,
      "Ġdeux": 2316,
      "Ġint": 2317,
      "LE": 2318,
      "temp": 2319,
      "ĠAt": 2320,
      "ĠPa": 2321,
      "aciones": 2322,
      "amento": 2323,
      "Ġyo": 2324,
      "Ġnorm": 2325,
      "Ġbar": 2326,
      "ĠArbe": 2327,
      "Ġwieder": 2328,
      "ĠThey": 2329,
      "Ġlast": 2330,
      "Ã®": 2331,
      "gn": 2332,
      "eder": 2333,
      "las": 2334,
      "ima": 2335,
      "weise": 2336,
      "ots": 2337,
      "ittle": 2338,
      "uti": 2339,
      "idos": 2340,
      "Ġchang": 2341,
      "ium": 2342,
      "ĠMo": 2343,
      "Ġaround": 2344,
      "Ġtras": 2345,
      "AD": 2346,
      "Ġtop": 2347,
      "Ġsci": 2348,
      "ential": 2349,
      "gio": 2350,
      "iamo": 2351,
      "sh": 2352,
      "tik": 2353,
      "Ã©ri": 2354,
      "gal": 2355,
      "Ġduring": 2356,
      "iden": 2357,
      "anza": 2358,
      "ĠÃ©ta": 2359,
      "Ġdeter": 2360,
      "Ġsk": 2361,
      "jet": 2362,
      "ired": 2363,
      "mber": 2364,
      "ierung": 2365,
      "eln": 2366,
      "Ġces": 2367,
      "Ġrest": 2368,
      "Ġsing": 2369,
      "Ã¤nd": 2370,
      "alle": 2371,
      "ouv": 2372,
      "Ġviel": 2373,
      "acter": 2374,
      "lex": 2375,
      "fÃ¼hr": 2376,
      "Ã±o": 2377,
      "Ġrepres": 2378,
      "Ġgoing": 2379,
      "Ġbene": 2380,
      "De": 2381,
      "Kategorie": 2382,
      "oco": 2383,
      "Ġlocal": 2384,
      "atter": 2385,
      "Ġdeb": 2386,
      "ict": 2387,
      "prÃ¨s": 2388,
      "ulation": 2389,
      "ands": 2390,
      "Ġviv": 2391,
      "Ġwithout": 2392,
      "Ġpropos": 2393,
      "Ġti": 2394,
      "Ġthree": 2395,
      "timm": 2396,
      "sen": 2397,
      "No": 2398,
      "itar": 2399,
      "Ġrun": 2400,
      "Ġtie": 2401,
      "Ġbusiness": 2402,
      "ards": 2403,
      "Ġrich": 2404,
      "Ġcaso": 2405,
      "Ġger": 2406,
      "ĠTo": 2407,
      "ID": 2408,
      "Ġcuando": 2409,
      "Ġcoun": 2410,
      "des": 2411,
      "ĠThere": 2412,
      "Ġresul": 2413,
      "ĠIhr": 2414,
      "Ġjo": 2415,
      "Ġiss": 2416,
      "hand": 2417,
      "Ġabs": 2418,
      "Ã±a": 2419,
      "Ġaccess": 2420,
      "Ġbase": 2421,
      "ĠGra": 2422,
      "alla": 2423,
      "Ġartic": 2424,
      "atÃ©": 2425,
      "ican": 2426,
      "ĠHow": 2427,
      "IT": 2428,
      "hor": 2429,
      "Ġmaterial": 2430,
      "nes": 2431,
      "icher": 2432,
      "Ġinform": 2433,
      "cture": 2434,
      "Ġavail": 2435,
      "Ġsuccess": 2436,
      "teur": 2437,
      "Ġdesc": 2438,
      "Ġdesde": 2439,
      "igkeit": 2440,
      "Ġperform": 2441,
      "opo": 2442,
      "Ar": 2443,
      "lung": 2444,
      "Ġhapp": 2445,
      "ination": 2446,
      "Ġtotal": 2447,
      "Ġconten": 2448,
      "CH": 2449,
      "Ġprofession": 2450,
      "ling": 2451,
      "Ġeas": 2452,
      "ype": 2453,
      "ustom": 2454,
      "Pro": 2455,
      "Ġtodos": 2456,
      "Ġcase": 2457,
      "Ġimportant": 2458,
      "adre": 2459,
      "Ġblog": 2460,
      "Ġ22": 2461,
      "ismo": 2462,
      "Ġlang": 2463,
      "agen": 2464,
      "usam": 2465,
      "Ġstar": 2466,
      "ĠBo": 2467,
      "dad": 2468,
      "itÃ¤t": 2469,
      "ĠInter": 2470,
      "arios": 2471,
      "Ġ50": 2472,
      "Ġcaus": 2473,
      "ogen": 2474,
      "Ġnombre": 2475,
      "Ġsmall": 2476,
      "ining": 2477,
      "Ġtri": 2478,
      "yer": 2479,
      "imes": 2480,
      "Ġperiod": 2481,
      "mm": 2482,
      "oli": 2483,
      "dem": 2484,
      "ouve": 2485,
      "nah": 2486,
      "oci": 2487,
      "Ġtiene": 2488,
      "thing": 2489,
      "AT": 2490,
      "cun": 2491,
      "itÃ©s": 2492,
      "Ġ)": 2493,
      "Ġnatur": 2494,
      "Ġsegu": 2495,
      "ĠCent": 2496,
      "ĠAu": 2497,
      "Ġprob": 2498,
      "Ġgegen": 2499,
      "ggi": 2500,
      "Ġcam": 2501,
      "Ġfol": 2502,
      "Ġdra": 2503,
      "Ġwrit": 2504,
      "ĠCook": 2505,
      "ald": 2506,
      "rupp": 2507,
      "Ġmor": 2508,
      "ĠtrÃ¨s": 2509,
      "Ġcop": 2510,
      "ĠFr": 2511,
      "Ġbelie": 2512,
      "Ġpeu": 2513,
      "Ġpossible": 2514,
      "ander": 2515,
      "Ġcla": 2516,
      "Ġnecess": 2517,
      "Ġlevel": 2518,
      "Ġetc": 2519,
      "Ġfuer": 2520,
      "AM": 2521,
      "tri": 2522,
      "ization": 2523,
      "Ġproduct": 2524,
      "ĠBar": 2525,
      "Ġemb": 2526,
      "ĠÃº": 2527,
      "wick": 2528,
      "omb": 2529,
      "put": 2530,
      "ha": 2531,
      "otto": 2532,
      "Ġgeneral": 2533,
      "ĠUm": 2534,
      "Ġdalla": 2535,
      "Ġneces": 2536,
      "24": 2537,
      "ething": 2538,
      "Ġfon": 2539,
      "Ġwithin": 2540,
      "eng": 2541,
      "Ġpag": 2542,
      "Ġimmer": 2543,
      "Ġbra": 2544,
      "arse": 2545,
      "Ġfew": 2546,
      "Ġeng": 2547,
      "This": 2548,
      "ĠÃľ": 2549,
      "Ġeing": 2550,
      "ffen": 2551,
      "hne": 2552,
      "zen": 2553,
      "chaft": 2554,
      "hnen": 2555,
      "Ġinte": 2556,
      "aba": 2557,
      "arbeit": 2558,
      "tation": 2559,
      "itor": 2560,
      "Ġconstru": 2561,
      "Ġgl": 2562,
      "Ã¼hr": 2563,
      "EL": 2564,
      "Ġren": 2565,
      "rent": 2566,
      "Ġfeel": 2567,
      "ache": 2568,
      "osten": 2569,
      "Ġsor": 2570,
      "ipp": 2571,
      "Ġba": 2572,
      "Ġihre": 2573,
      "Ġgem": 2574,
      "Ġva": 2575,
      "ope": 2576,
      "ribu": 2577,
      "Ġthings": 2578,
      "endre": 2579,
      "ws": 2580,
      "Ġteam": 2581,
      "atos": 2582,
      "Ġpay": 2583,
      "ished": 2584,
      "ditions": 2585,
      "Ġanother": 2586,
      "Ġdegli": 2587,
      "Ġport": 2588,
      "ĠâĪ": 2589,
      "ĠSan": 2590,
      "Ġfree": 2591,
      "Ġwel": 2592,
      "ole": 2593,
      "Ġ23": 2594,
      "Be": 2595,
      "ional": 2596,
      "ights": 2597,
      "ties": 2598,
      "Ġlittle": 2599,
      "Ġnost": 2600,
      "lia": 2601,
      "):": 2602,
      "comm": 2603,
      "ists": 2604,
      "isto": 2605,
      "ined": 2606,
      "ird": 2607,
      "Ġcertain": 2608,
      "Ġsl": 2609,
      "oph": 2610,
      "Ġelect": 2611,
      "Ġdef": 2612,
      "gs": 2613,
      "ella": 2614,
      "ords": 2615,
      "kes": 2616,
      "ffic": 2617,
      "Ġquestion": 2618,
      "ĠGu": 2619,
      "Ġservices": 2620,
      "Ġnever": 2621,
      "Ġanti": 2622,
      "lÃ¤": 2623,
      "utes": 2624,
      "OL": 2625,
      "uv": 2626,
      "tto": 2627,
      "Ġsupport": 2628,
      "Ġweiter": 2629,
      "ĠComm": 2630,
      "hm": 2631,
      "ĠCan": 2632,
      "bert": 2633,
      "uck": 2634,
      "ĠFre": 2635,
      "Ġsua": 2636,
      "Ġadv": 2637,
      "Ġfer": 2638,
      "amo": 2639,
      "ĠrÃ©s": 2640,
      "Ġsehr": 2641,
      "ĠIns": 2642,
      "Ġdou": 2643,
      "Ġpower": 2644,
      "www": 2645,
      "Ġetw": 2646,
      "Ġlove": 2647,
      "ograph": 2648,
      "Ġpropri": 2649,
      "zeit": 2650,
      "40": 2651,
      "ĠBet": 2652,
      "Ġben": 2653,
      "Ġsans": 2654,
      "ared": 2655,
      "ament": 2656,
      "Ġdim": 2657,
      "tific": 2658,
      "Ġbere": 2659,
      "Ġmight": 2660,
      "schaft": 2661,
      "net": 2662,
      "Ġavailable": 2663,
      "ĠVers": 2664,
      "ural": 2665,
      "ises": 2666,
      "Ġhasta": 2667,
      "Ġmess": 2668,
      "Ġfur": 2669,
      "Con": 2670,
      "ump": 2671,
      "Ġalways": 2672,
      "Ġlink": 2673,
      "berg": 2674,
      "Ġhuman": 2675,
      "ems": 2676,
      "undo": 2677,
      "yl": 2678,
      "US": 2679,
      "rim": 2680,
      "zza": 2681,
      "Ġopen": 2682,
      "Ġtest": 2683,
      "book": 2684,
      "ua": 2685,
      "ĠSa": 2686,
      "Ġhacer": 2687,
      "Ġemplo": 2688,
      "chni": 2689,
      "Ġbeh": 2690,
      "ĠApp": 2691,
      "Ġespecial": 2692,
      "Ġdr": 2693,
      "Ġmir": 2694,
      "Ġalgun": 2695,
      "Ġsomething": 2696,
      "ĠMark": 2697,
      "Ġbetter": 2698,
      "ĠEsta": 2699,
      "Ġloro": 2700,
      "self": 2701,
      "Ã©rie": 2702,
      "ĠShe": 2703,
      "Ġca": 2704,
      "atch": 2705,
      "ĠPerson": 2706,
      "erstand": 2707,
      "Ġparticular": 2708,
      "arti": 2709,
      "ought": 2710,
      "Ġgran": 2711,
      "Ġbon": 2712,
      "Ġsince": 2713,
      "geben": 2714,
      "cas": 2715,
      "22": 2716,
      "Ġput": 2717,
      "ĠÎ": 2718,
      "das": 2719,
      "htt": 2720,
      "Ġindic": 2721,
      "ĠMin": 2722,
      "Ġfri": 2723,
      "uest": 2724,
      "lob": 2725,
      "ints": 2726,
      "Ġtous": 2727,
      "Ġcost": 2728,
      "Ġless": 2729,
      "Ġchi": 2730,
      "Ġgel": 2731,
      "usammen": 2732,
      "Ġlearn": 2733,
      "eting": 2734,
      "Ġeconom": 2735,
      "ifica": 2736,
      "ĠRes": 2737,
      "Ġgre": 2738,
      "ĠServ": 2739,
      "Ġparticip": 2740,
      "Ġanim": 2741,
      "Ġexc": 2742,
      "Ġvide": 2743,
      "lack": 2744,
      "Ġprima": 2745,
      "rop": 2746,
      "Ġsiste": 2747,
      "ogle": 2748,
      "Ġstart": 2749,
      "amiento": 2750,
      "Ġpati": 2751,
      "Ġkeine": 2752,
      "fect": 2753,
      "ĠgÃ©n": 2754,
      "Ġincluding": 2755,
      "Ġenti": 2756,
      "Ġcell": 2757,
      "Ġproper": 2758,
      "âĢĿ.": 2759,
      "ares": 2760,
      "Ġonline": 2761,
      "Ġinves": 2762,
      "Ġkeep": 2763,
      "Ġdispos": 2764,
      "Ġsuo": 2765,
      "Ġdecis": 2766,
      "Ã¼ss": 2767,
      "Ġchange": 2768,
      "Ġ%": 2769,
      "eros": 2770,
      "by": 2771,
      "Ġrealiz": 2772,
      "Ġsimple": 2773,
      "orth": 2774,
      "Ġay": 2775,
      "ĠIhre": 2776,
      "asse": 2777,
      "ĠLos": 2778,
      "lick": 2779,
      "Wh": 2780,
      "Ġamb": 2781,
      "onder": 2782,
      "ÃŁen": 2783,
      "utsch": 2784,
      "table": 2785,
      "Ġsowie": 2786,
      "Ġschool": 2787,
      "Ãī": 2788,
      "zz": 2789,
      "essen": 2790,
      "Es": 2791,
      "ĠWeb": 2792,
      "Ġmejor": 2793,
      "Ġ26": 2794,
      "Les": 2795,
      "ĠWer": 2796,
      "Ġrefer": 2797,
      "ĠâĢĺ": 2798,
      "Ġview": 2799,
      "ÃŃn": 2800,
      "Ĥ¬": 2801,
      "Ġ21": 2802,
      "RO": 2803,
      "Ġwater": 2804,
      "Ġdig": 2805,
      "izione": 2806,
      "ĠDu": 2807,
      "Com": 2808,
      "bbe": 2809,
      "Ġgot": 2810,
      "acy": 2811,
      "atti": 2812,
      "Ch": 2813,
      "ĠProdu": 2814,
      "23": 2815,
      "Ġdurante": 2816,
      "Ġhan": 2817,
      "cir": 2818,
      "Ġfour": 2819,
      "Ġhead": 2820,
      "Ġspecific": 2821,
      "tellt": 2822,
      "Ġstru": 2823,
      "ĠInd": 2824,
      "ĠâĢ¢": 2825,
      "Ġgior": 2826,
      "Ġdiffic": 2827,
      "ĠCor": 2828,
      "erc": 2829,
      "Ġutiliz": 2830,
      "ellen": 2831,
      "quier": 2832,
      "count": 2833,
      "Ġtiemp": 2834,
      "Ġconne": 2835,
      "Ġmonth": 2836,
      "Ġ28": 2837,
      "iver": 2838,
      "Ġcri": 2839,
      "ĠMus": 2840,
      "yle": 2841,
      "Ġlot": 2842,
      "Ġspecial": 2843,
      "ĠâĢĶ": 2844,
      "ÃŃcul": 2845,
      "Ġdonde": 2846,
      "Ġord": 2847,
      "Ġgrande": 2848,
      "Ġobje": 2849,
      "Ġporque": 2850,
      "Ġsec": 2851,
      "Ġanni": 2852,
      "Ġpoli": 2853,
      "Ġfem": 2854,
      "Ġens": 2855,
      "aly": 2856,
      "Ġtanto": 2857,
      "ilt": 2858,
      "ĠIN": 2859,
      "Ġsure": 2860,
      "Ġart": 2861,
      "Ġ27": 2862,
      "unque": 2863,
      "Ġsab": 2864,
      "Ġfilm": 2865,
      "Ġmeth": 2866,
      "Ġfund": 2867,
      "Ġelle": 2868,
      "isc": 2869,
      "tin": 2870,
      "UE": 2871,
      "ava": 2872,
      "ĠYork": 2873,
      "Ġpur": 2874,
      "As": 2875,
      "ama": 2876,
      "ĠInformation": 2877,
      "ala": 2878,
      "miento": 2879,
      "ira": 2880,
      "Ġfamily": 2881,
      "tigen": 2882,
      "Ġinc": 2883,
      "Ġschon": 2884,
      "ability": 2885,
      "Ġhealth": 2886,
      "Ġmodel": 2887,
      "Ġagainst": 2888,
      "It": 2889,
      "Ġprac": 2890,
      "lag": 2891,
      "Ġtar": 2892,
      "Ġturn": 2893,
      "Ġdays": 2894,
      "lage": 2895,
      "Ġexperience": 2896,
      "Ġfavor": 2897,
      "ĠPor": 2898,
      "Ġprovid": 2899,
      "Ġsoci": 2900,
      "Ġ*": 2901,
      "Ã¤s": 2902,
      "ffer": 2903,
      "ĠCons": 2904,
      "Ġextra": 2905,
      "ortun": 2906,
      "Ġindividual": 2907,
      "ĠTer": 2908,
      "ani": 2909,
      "terior": 2910,
      "Ġevent": 2911,
      "Ġsex": 2912,
      "Ġexample": 2913,
      "gem": 2914,
      "Ġbeau": 2915,
      "Ġinde": 2916,
      "Ġcha": 2917,
      "Ġhin": 2918,
      "60": 2919,
      "Ġnext": 2920,
      "ĠStud": 2921,
      "ror": 2922,
      "Ġbit": 2923,
      "Ġmass": 2924,
      "Ġgive": 2925,
      "Ġvisit": 2926,
      "iciÃ³n": 2927,
      "ury": 2928,
      "ĠUniversity": 2929,
      "arm": 2930,
      "Ġtutti": 2931,
      "imento": 2932,
      "Ġlarge": 2933,
      "Ġcada": 2934,
      "bild": 2935,
      "icy": 2936,
      "Ġtyp": 2937,
      "zeich": 2938,
      "ĠMens": 2939,
      "pond": 2940,
      "Ġable": 2941,
      "itive": 2942,
      "Ġcustom": 2943,
      "ĠrÃ©g": 2944,
      "Ã¨res": 2945,
      "IL": 2946,
      "Ġvez": 2947,
      "yd": 2948,
      "ries": 2949,
      "uk": 2950,
      "ĠLand": 2951,
      "Ġinterest": 2952,
      "Ġ<": 2953,
      "Ġdirect": 2954,
      "âĢĿ,": 2955,
      "tement": 2956,
      "Ġsele": 2957,
      "oir": 2958,
      "Ġ40": 2959,
      "ÃŃan": 2960,
      "Ġstra": 2961,
      "Ġdesp": 2962,
      "ements": 2963,
      "Ġprovide": 2964,
      "Ġgovern": 2965,
      "Ġhor": 2966,
      "igt": 2967,
      "IA": 2968,
      "ĠHand": 2969,
      "Ġhard": 2970,
      "fach": 2971,
      "Ġaqu": 2972,
      "Â°": 2973,
      "ichts": 2974,
      "ĠWo": 2975,
      "str": 2976,
      "ĠJohn": 2977,
      "Ġgibt": 2978,
      "ĠMod": 2979,
      "ager": 2980,
      "ases": 2981,
      "iety": 2982,
      "Ġenerg": 2983,
      "Ġmoment": 2984,
      "entre": 2985,
      "Ġpal": 2986,
      "Ġselbst": 2987,
      "Ġvos": 2988,
      "osp": 2989,
      "ither": 2990,
      "pub": 2991,
      "allen": 2992,
      "Ġbig": 2993,
      "Ġzwischen": 2994,
      "ĠChe": 2995,
      "ula": 2996,
      "Ġwebsite": 2997,
      "Ġfunction": 2998,
      "Ġol": 2999,
      "ĠGesch": 3000,
      "atÃ©gor": 3001,
      "TO": 3002,
      "viron": 3003,
      "80": 3004,
      "etta": 3005,
      "chts": 3006,
      "idas": 3007,
      "Ġanderen": 3008,
      "Ġsum": 3009,
      "mar": 3010,
      "ĠtÃ©": 3011,
      "ĠOb": 3012,
      "uter": 3013,
      "Ġpes": 3014,
      "Ġmomento": 3015,
      "ids": 3016,
      "tives": 3017,
      "vin": 3018,
      "ĠHo": 3019,
      "Ġvir": 3020,
      "Ġsour": 3021,
      "iente": 3022,
      "zw": 3023,
      "Ġfollowing": 3024,
      "ĠasÃŃ": 3025,
      "kte": 3026,
      "Ġmulti": 3027,
      "bens": 3028,
      "Ġtes": 3029,
      "Ġreturn": 3030,
      "Ġcond": 3031,
      "ably": 3032,
      "wir": 3033,
      "imm": 3034,
      "Ġatt": 3035,
      "hlen": 3036,
      "Ġsenti": 3037,
      "Ġred": 3038,
      "ĠSal": 3039,
      "Ġmie": 3040,
      "'m": 3041,
      "Ġredu": 3042,
      "nehmen": 3043,
      "ov": 3044,
      "ĠnÃ©": 3045,
      "oney": 3046,
      "ĠCal": 3047,
      "Ġimm": 3048,
      "Ġcin": 3049,
      "ony": 3050,
      "Ã¶s": 3051,
      "Ġaddition": 3052,
      "Ġmethod": 3053,
      "Ġpare": 3054,
      "Ġdise": 3055,
      "26": 3056,
      "ĠDi": 3057,
      "comp": 3058,
      "isse": 3059,
      "Ġ195": 3060,
      "ker": 3061,
      "gni": 3062,
      "ĠEd": 3063,
      "war": 3064,
      "insi": 3065,
      "uten": 3066,
      "Ġpie": 3067,
      "arÃ¡": 3068,
      "21": 3069,
      "ĠPe": 3070,
      "Ġconcern": 3071,
      "thers": 3072,
      "ĠSer": 3073,
      "ĠInternet": 3074,
      "St": 3075,
      "acht": 3076,
      "ĠSin": 3077,
      "Ġtele": 3078,
      "Ã»": 3079,
      "cou": 3080,
      "Ġlav": 3081,
      "inder": 3082,
      "tional": 3083,
      "Ġvida": 3084,
      "Ġesp": 3085,
      "ED": 3086,
      "ĠAut": 3087,
      "fra": 3088,
      "Ġphys": 3089,
      "ĠGrund": 3090,
      "Ġnotre": 3091,
      "Ġhal": 3092,
      "Ġpoliti": 3093,
      "If": 3094,
      "Ġstato": 3095,
      "Ġassoci": 3096,
      "Ġtiempo": 3097,
      "Ġresult": 3098,
      "ichte": 3099,
      "Ġviol": 3100,
      "Ġvar": 3101,
      "Ġdiesem": 3102,
      "vie": 3103,
      "Ġfull": 3104,
      "ologie": 3105,
      ");": 3106,
      "ĠLo": 3107,
      "Ġtype": 3108,
      "Ġprev": 3109,
      "Ġoffic": 3110,
      "ĠEurope": 3111,
      "Ġautor": 3112,
      "ĠUr": 3113,
      "UN": 3114,
      "Ġ194": 3115,
      "atori": 3116,
      "ĠII": 3117,
      "ruck": 3118,
      "Ġfond": 3119,
      "Ġlu": 3120,
      "Ġcall": 3121,
      "ĠAbs": 3122,
      "Ġgame": 3123,
      "Ġsoc": 3124,
      "ades": 3125,
      "ĠMy": 3126,
      "==": 3127,
      "son": 3128,
      "Ġsav": 3129,
      "atÃ©gorie": 3130,
      "Ġatta": 3131,
      "27": 3132,
      "Ġthough": 3133,
      "Ġ2012": 3134,
      "ibile": 3135,
      "Ã¼ber": 3136,
      "Ġbuild": 3137,
      "Ġarea": 3138,
      "Ġobser": 3139,
      "fort": 3140,
      "Ġlug": 3141,
      "outh": 3142,
      "atura": 3143,
      "Ġ29": 3144,
      "Ġdiscuss": 3145,
      "You": 3146,
      "iles": 3147,
      "ierte": 3148,
      "Ġsia": 3149,
      "Ġsous": 3150,
      "29": 3151,
      "Ġmot": 3152,
      "ged": 3153,
      "una": 3154,
      "ichtig": 3155,
      "halb": 3156,
      "Ġname": 3157,
      "Ġmodo": 3158,
      "aug": 3159,
      "Ġunderstand": 3160,
      "ilar": 3161,
      "ream": 3162,
      "Ġrelig": 3163,
      "ball": 3164,
      "Ġohne": 3165,
      "gar": 3166,
      "igne": 3167,
      "Ġprod": 3168,
      "urb": 3169,
      "EC": 3170,
      "ley": 3171,
      "Ġfinan": 3172,
      "rÃ¤": 3173,
      "Ġmean": 3174,
      "ĠWhen": 3175,
      "Ġnun": 3176,
      "Ġdich": 3177,
      "CategorÃŃa": 3178,
      "ĠArt": 3179,
      "stra": 3180,
      "fi": 3181,
      "ically": 3182,
      "ĠFrance": 3183,
      "Ġprem": 3184,
      "Ġnet": 3185,
      "uso": 3186,
      "iÃ¨re": 3187,
      "Ġcompos": 3188,
      "ischer": 3189,
      "ĠÂ¿": 3190,
      "ĠDa": 3191,
      "orts": 3192,
      "Ġquesta": 3193,
      "Ġhabe": 3194,
      "Ġoften": 3195,
      "Ġmismo": 3196,
      "ingen": 3197,
      "ĠSpe": 3198,
      "earch": 3199,
      "Ġphot": 3200,
      "Ġill": 3201,
      "Ġinfl": 3202,
      "Ġesto": 3203,
      "atis": 3204,
      "sten": 3205,
      "action": 3206,
      "face": 3207,
      "Ne": 3208,
      "atures": 3209,
      "icos": 3210,
      "stand": 3211,
      "ĠTeil": 3212,
      "stems": 3213,
      "hol": 3214,
      "Ġgiven": 3215,
      "Ġequip": 3216,
      "Ġcourse": 3217,
      "gesch": 3218,
      "Ġliber": 3219,
      "Ġbased": 3220,
      "ules": 3221,
      "enda": 3222,
      "Ġsche": 3223,
      "upp": 3224,
      "Ġair": 3225,
      "Ġpage": 3226,
      "Ġallow": 3227,
      "utt": 3228,
      "abei": 3229,
      "Ġze": 3230,
      "Ġdec": 3231,
      "ĠCookies": 3232,
      "Qu": 3233,
      "Ġgio": 3234,
      "lar": 3235,
      "Ġeduc": 3236,
      "ush": 3237,
      "chte": 3238,
      "Ġrespe": 3239,
      "gress": 3240,
      "Ġmuss": 3241,
      "ĠpuÃ²": 3242,
      "fts": 3243,
      "ĠinformaciÃ³n": 3244,
      "RA": 3245,
      "âĢ¢": 3246,
      "28": 3247,
      "tta": 3248,
      "ney": 3249,
      "dio": 3250,
      "load": 3251,
      "Ġtemps": 3252,
      "198": 3253,
      "Ġarg": 3254,
      "amen": 3255,
      "Ġdonn": 3256,
      ",âĢĿ": 3257,
      "Ġsever": 3258,
      "Ġcalled": 3259,
      "Ġese": 3260,
      "Ġhanno": 3261,
      "Ġproblem": 3262,
      "Ġbuen": 3263,
      "Ġ2013": 3264,
      "Ġactual": 3265,
      "iÃ³": 3266,
      "ĠâĢ¦": 3267,
      "rÃ¡": 3268,
      "HE": 3269,
      "Ġunivers": 3270,
      "adores": 3271,
      "Ġmig": 3272,
      "Ġimpro": 3273,
      "Ġacqu": 3274,
      "Ġnav": 3275,
      "unter": 3276,
      "Ġrecon": 3277,
      "Ġreci": 3278,
      "entlich": 3279,
      "Ġleft": 3280,
      "Ġdetermin": 3281,
      "under": 3282,
      "amm": 3283,
      "ĠWar": 3284,
      "ktion": 3285,
      "ĠSc": 3286,
      "atore": 3287,
      "Ġkind": 3288,
      "ustri": 3289,
      "Ġpremi": 3290,
      "Ġwr": 3291,
      "Ġdeta": 3292,
      "Der": 3293,
      "Ad": 3294,
      "Ġproced": 3295,
      "Ġdont": 3296,
      "ĠThat": 3297,
      "Ġej": 3298,
      "iva": 3299,
      "Ġorganiz": 3300,
      "Ġask": 3301,
      "part": 3302,
      "35": 3303,
      "Ġface": 3304,
      "icio": 3305,
      "oles": 3306,
      "Ġchildren": 3307,
      "Ġtal": 3308,
      "Ġ2010": 3309,
      "Ġcontact": 3310,
      "uge": 3311,
      "time": 3312,
      "Ġtreat": 3313,
      "Ġhatte": 3314,
      "ilia": 3315,
      "Ġpubblic": 3316,
      "eding": 3317,
      "Ġmayor": 3318,
      "oman": 3319,
      "ĠGener": 3320,
      "ĠES": 3321,
      "Ġcat": 3322,
      "erse": 3323,
      "ET": 3324,
      "acc": 3325,
      "'re": 3326,
      "elli": 3327,
      "ĠFin": 3328,
      "ÃŁe": 3329,
      "Ġange": 3330,
      "jos": 3331,
      "fs": 3332,
      "Ġpress": 3333,
      "Ġgrow": 3334,
      "Ġmajor": 3335,
      "Ġhtt": 3336,
      "ĠAN": 3337,
      "weis": 3338,
      "Ġesper": 3339,
      "Si": 3340,
      "Ġcookie": 3341,
      "Ġdamit": 3342,
      "tir": 3343,
      "ften": 3344,
      "ube": 3345,
      "ĠEnt": 3346,
      "Ġotros": 3347,
      "anda": 3348,
      "iera": 3349,
      "ording": 3350,
      "CatÃ©gorie": 3351,
      "Ġhace": 3352,
      "Ġinvol": 3353,
      "ĠGro": 3354,
      "Ġ2014": 3355,
      "Ġseine": 3356,
      "uesto": 3357,
      "ĠThese": 3358,
      "ĠForm": 3359,
      "Ġwhe": 3360,
      "].": 3361,
      "vid": 3362,
      "ĠLA": 3363,
      "Ġvalue": 3364,
      "tare": 3365,
      "issen": 3366,
      "Ġlleg": 3367,
      "rid": 3368,
      "ĠaÃ±o": 3369,
      "Ġcheck": 3370,
      "Ġwurden": 3371,
      "Ġaver": 3372,
      "aro": 3373,
      "Ġresearch": 3374,
      "Ġeurop": 3375,
      "Ġcontent": 3376,
      "alia": 3377,
      "Ġenter": 3378,
      "Ġsignific": 3379,
      "ĠDis": 3380,
      "tellen": 3381,
      "ĠAc": 3382,
      "Ġcompany": 3383,
      "Ġtrava": 3384,
      "uff": 3385,
      "Ġganz": 3386,
      "crit": 3387,
      "čĊ": 3388,
      "Ġsent": 3389,
      "Ġcasa": 3390,
      "Ġdall": 3391,
      "ĠoÃ¹": 3392,
      "Ġcomplete": 3393,
      "Ġmeas": 3394,
      "ĠAmerican": 3395,
      "ĠHar": 3396,
      "Ġsistema": 3397,
      "Ġold": 3398,
      "ĠPres": 3399,
      "Ġsempre": 3400,
      "ysis": 3401,
      "ĠChar": 3402,
      "ĠGoogle": 3403,
      "><": 3404,
      "zial": 3405,
      "ately": 3406,
      "ĠdÃ©s": 3407,
      "--------": 3408,
      "Ã¤lt": 3409,
      "ĠMay": 3410,
      "39": 3411,
      "Ġtom": 3412,
      "ĠGod": 3413,
      "mittel": 3414,
      "He": 3415,
      "Ġpoco": 3416,
      "Ġtimes": 3417,
      "Ġmind": 3418,
      "ĠDo": 3419,
      "Ġsac": 3420,
      "Ã©ta": 3421,
      "ĠÃ¡": 3422,
      "Ġcomment": 3423,
      "Ġcommer": 3424,
      "oni": 3425,
      "mann": 3426,
      "Ġdispon": 3427,
      "Ġlater": 3428,
      "Ġconditions": 3429,
      "Ġnuo": 3430,
      "Ġmeans": 3431,
      "halt": 3432,
      "Ġuntil": 3433,
      "aden": 3434,
      "tention": 3435,
      "Ġrepresent": 3436,
      "Ġwhy": 3437,
      "Ġcro": 3438,
      "Ġeinz": 3439,
      "Ġpersonas": 3440,
      "Ġber": 3441,
      "ail": 3442,
      "ministra": 3443,
      "Ã¼nd": 3444,
      "udi": 3445,
      "oper": 3446,
      "tie": 3447,
      "Ġlist": 3448,
      "Ġep": 3449,
      "Ġthing": 3450,
      "Ġlaw": 3451,
      "So": 3452,
      "IG": 3453,
      "Ġsea": 3454,
      "asser": 3455,
      "Ġutilis": 3456,
      "Ġregist": 3457,
      "Ġleast": 3458,
      "Ġtermin": 3459,
      "Ġstor": 3460,
      "Ġpromo": 3461,
      "Ġnormal": 3462,
      "tere": 3463,
      "IM": 3464,
      "Ġ2011": 3465,
      "ftware": 3466,
      "chs": 3467,
      "Ver": 3468,
      "Ġtrav": 3469,
      "Ġtipo": 3470,
      "Ġcorres": 3471,
      "Ġdic": 3472,
      "ental": 3473,
      "Ġexpl": 3474,
      "ĠBen": 3475,
      "Ġaway": 3476,
      "uÃ©s": 3477,
      "bere": 3478,
      "util": 3479,
      "rich": 3480,
      "Ġabb": 3481,
      "ĠCe": 3482,
      "ticas": 3483,
      "Ġhaving": 3484,
      "Ġmove": 3485,
      "idente": 3486,
      "ĠLu": 3487,
      "Ġsito": 3488,
      "ateur": 3489,
      "Ex": 3490,
      "oso": 3491,
      "tivi": 3492,
      "yed": 3493,
      "pression": 3494,
      "hÃ¶r": 3495,
      "ived": 3496,
      "rive": 3497,
      "rateg": 3498,
      "Ġ2016": 3499,
      "bres": 3500,
      "Ġkle": 3501,
      "pte": 3502,
      "Ġgleich": 3503,
      "tige": 3504,
      "ĠDr": 3505,
      "Ġsei": 3506,
      "Ġnature": 3507,
      "enne": 3508,
      "ĠÃī": 3509,
      "Ġainsi": 3510,
      "ched": 3511,
      "Ã¡c": 3512,
      "Ġpresente": 3513,
      "Ġrelations": 3514,
      "ya": 3515,
      "aben": 3516,
      "ĠdÃŃa": 3517,
      "cret": 3518,
      "ĠTrans": 3519,
      "ĠÃ©gal": 3520,
      "llen": 3521,
      "Ġsulla": 3522,
      "Ã©g": 3523,
      "Ġpersona": 3524,
      "ĠpaÃŃs": 3525,
      "Ġconsum": 3526,
      "unic": 3527,
      "ĠIch": 3528,
      "33": 3529,
      "fa": 3530,
      "Ġmaking": 3531,
      "Ġwen": 3532,
      "ieder": 3533,
      "AP": 3534,
      "Ġbi": 3535,
      "Ġtien": 3536,
      "Ġinclude": 3537,
      "Ġcamb": 3538,
      "Ġencore": 3539,
      "ĠJul": 3540,
      "ris": 3541,
      "Ġworking": 3542,
      "Ġbeim": 3543,
      "Ġside": 3544,
      "Ġlat": 3545,
      "cel": 3546,
      "Ã¼tz": 3547,
      "tab": 3548,
      "Ġbek": 3549,
      "Ġul": 3550,
      "ION": 3551,
      "Ã±os": 3552,
      "Ġ2008": 3553,
      "Ġidea": 3554,
      "asi": 3555,
      "Ġreason": 3556,
      "Ġaller": 3557,
      "pf": 3558,
      "vention": 3559,
      "aps": 3560,
      "On": 3561,
      "ĠÃ©t": 3562,
      "ote": 3563,
      "arroll": 3564,
      "ĠÂ§": 3565,
      "licher": 3566,
      "70": 3567,
      "Ġmich": 3568,
      "Ġah": 3569,
      "Ġdonc": 3570,
      "ĠCont": 3571,
      "orld": 3572,
      "Ġothers": 3573,
      "unds": 3574,
      "Ġmedia": 3575,
      "Ġtecn": 3576,
      "Ġdisp": 3577,
      "unde": 3578,
      "Ġsog": 3579,
      "Ġrepr": 3580,
      "Ġinvestig": 3581,
      "Ġang": 3582,
      "ember": 3583,
      "uelle": 3584,
      "contr": 3585,
      "rier": 3586,
      "Ġzwei": 3587,
      "Ġcann": 3588,
      "div": 3589,
      "Ġ2015": 3590,
      "istas": 3591,
      "Ġmodern": 3592,
      "http": 3593,
      "ready": 3594,
      "Ġpersonn": 3595,
      "Ãºblic": 3596,
      "Ġmolto": 3597,
      "ensch": 3598,
      "inger": 3599,
      "tische": 3600,
      "Ġos": 3601,
      "met": 3602,
      "Ġabove": 3603,
      "Ab": 3604,
      "'ve": 3605,
      "Ġproducts": 3606,
      "Ġriv": 3607,
      "ii": 3608,
      "Ġfine": 3609,
      "Ġogni": 3610,
      "ktiv": 3611,
      "can": 3612,
      "forder": 3613,
      "45": 3614,
      "Ġappear": 3615,
      "Ġnell": 3616,
      "Ġrom": 3617,
      "aring": 3618,
      "Ġ2017": 3619,
      "Ġintro": 3620,
      "Ġlors": 3621,
      "ĠWill": 3622,
      "aires": 3623,
      "ums": 3624,
      "ispiel": 3625,
      "ĠÃ©l": 3626,
      "Ġtutto": 3627,
      "Ġterm": 3628,
      "ĠStra": 3629,
      "cription": 3630,
      "Ġtell": 3631,
      "Ġ2009": 3632,
      "ocus": 3633,
      "Ġguer": 3634,
      "Ġaddress": 3635,
      "Ġdidn": 3636,
      "ka": 3637,
      "izi": 3638,
      "ĠCas": 3639,
      "ucht": 3640,
      "ĠNutz": 3641,
      "udad": 3642,
      "Ġpan": 3643,
      "Ġseveral": 3644,
      "Ġfield": 3645,
      "ĠMal": 3646,
      "Das": 3647,
      "Ġautom": 3648,
      "Ġ60": 3649,
      "ĠHa": 3650,
      "ĠÃ¤": 3651,
      "labor": 3652,
      "tiche": 3653,
      "Ġlow": 3654,
      "36": 3655,
      "Ġdevelopment": 3656,
      "ĠMenschen": 3657,
      "oren": 3658,
      "Ġenviron": 3659,
      "ĠBei": 3660,
      "Ġbody": 3661,
      "Ġpurch": 3662,
      "Ġlight": 3663,
      "Ġsw": 3664,
      "ĠLas": 3665,
      "lobal": 3666,
      "gether": 3667,
      "Ġrap": 3668,
      "Ġdopo": 3669,
      "ret": 3670,
      "Ġtalk": 3671,
      "unkt": 3672,
      "uls": 3673,
      "ĠUN": 3674,
      "Ġhi": 3675,
      ".-": 3676,
      "ols": 3677,
      "Ġsera": 3678,
      "ĠMil": 3679,
      "etti": 3680,
      "nung": 3681,
      "ĠHowever": 3682,
      "wert": 3683,
      "ĠMer": 3684,
      "Ġayud": 3685,
      "Ġrema": 3686,
      "Ġvideo": 3687,
      "ĠÃľber": 3688,
      "ĠZe": 3689,
      "yr": 3690,
      "ĠÃ©galement": 3691,
      "raft": 3692,
      "imiento": 3693,
      "ĠDav": 3694,
      "Ġkon": 3695,
      "Ġju": 3696,
      "Ġdone": 3697,
      "ientos": 3698,
      "fahren": 3699,
      "Ġeso": 3700,
      "Ġcover": 3701,
      "Ġiniti": 3702,
      "Ġseiner": 3703,
      "Ġsingle": 3704,
      "ustr": 3705,
      "Ġsondern": 3706,
      "uego": 3707,
      "burg": 3708,
      "ĠVol": 3709,
      "Ġthought": 3710,
      "Ġsenza": 3711,
      "Ġri": 3712,
      "ĠEt": 3713,
      "antas": 3714,
      "dit": 3715,
      "ournal": 3716,
      "tore": 3717,
      "Ġpast": 3718,
      "Ġemail": 3719,
      "Ġrepor": 3720,
      "Ġalready": 3721,
      "Ġeffect": 3722,
      "Ġcolor": 3723,
      "Je": 3724,
      "ĠIS": 3725,
      "ured": 3726,
      "Ġenough": 3727,
      "Or": 3728,
      "ĠDiese": 3729,
      "Ġalong": 3730,
      "reib": 3731,
      "Ġdere": 3732,
      "Ġanc": 3733,
      "tam": 3734,
      "Ġbecome": 3735,
      "aum": 3736,
      "uring": 3737,
      "izio": 3738,
      "99": 3739,
      "ordin": 3740,
      "Ġterrit": 3741,
      "Ġweit": 3742,
      "ÂłÂł": 3743,
      "Ġdati": 3744,
      "Ġever": 3745,
      "Ġciv": 3746,
      "chten": 3747,
      "ological": 3748,
      "Ġrecord": 3749,
      "Ġq": 3750,
      "entr": 3751,
      "emplo": 3752,
      "elo": 3753,
      "Ġverb": 3754,
      "reen": 3755,
      "34": 3756,
      "ago": 3757,
      "Ġremo": 3758,
      "Ġamp": 3759,
      "Ġpays": 3760,
      "ĠAg": 3761,
      "most": 3762,
      "ĠEngl": 3763,
      "Ġmoney": 3764,
      "hib": 3765,
      "irl": 3766,
      "ests": 3767,
      "chan": 3768,
      "TION": 3769,
      "Ġroom": 3770,
      "ĠWhat": 3771,
      "arte": 3772,
      "ĠLi": 3773,
      "ning": 3774,
      "fil": 3775,
      "icas": 3776,
      "Ġprefer": 3777,
      "ahre": 3778,
      "ĠUnited": 3779,
      "tage": 3780,
      "tado": 3781,
      "Ġvic": 3782,
      "Ġattra": 3783,
      "uve": 3784,
      "Ġmundo": 3785,
      "lle": 3786,
      "ift": 3787,
      "gew": 3788,
      "Ġsepar": 3789,
      "Ġposition": 3790,
      "________": 3791,
      "oca": 3792,
      "Ġsolu": 3793,
      "Ġoc": 3794,
      "Ġmusic": 3795,
      "ĠFil": 3796,
      "Ġreview": 3797,
      "enten": 3798,
      "ĠBere": 3799,
      "iller": 3800,
      "Ã©ra": 3801,
      "Ġwomen": 3802,
      "otes": 3803,
      "ĠPal": 3804,
      "Ġ2018": 3805,
      "ĠEN": 3806,
      "ĠNa": 3807,
      "Ġjour": 3808,
      "rir": 3809,
      "Ġaccount": 3810,
      "ĠgÃ©nÃ©r": 3811,
      "Ġnei": 3812,
      "Ġrecomm": 3813,
      "Ġquestions": 3814,
      "Ġsar": 3815,
      "Ġviene": 3816,
      "though": 3817,
      "38": 3818,
      "Ġtend": 3819,
      "oud": 3820,
      "Ġfi": 3821,
      "Ġsett": 3822,
      "ĠDire": 3823,
      "Ġdifer": 3824,
      "hi": 3825,
      "Ġcondu": 3826,
      "Ġdav": 3827,
      "tisch": 3828,
      "Des": 3829,
      "Ġpermet": 3830,
      "Ġoriginal": 3831,
      "IV": 3832,
      "ceso": 3833,
      "Ġlooking": 3834,
      "Ġtrat": 3835,
      "ĠOp": 3836,
      "ĠMad": 3837,
      "Ġ2000": 3838,
      "Ġ2007": 3839,
      "ĠBro": 3840,
      "Ġcualquier": 3841,
      "Ġresults": 3842,
      "Ġempres": 3843,
      "asc": 3844,
      "Ġfois": 3845,
      "iate": 3846,
      "ox": 3847,
      "fica": 3848,
      "aster": 3849,
      "mod": 3850,
      "Ġfacil": 3851,
      "Ġpunto": 3852,
      "ĠOne": 3853,
      "arl": 3854,
      "Ġhig": 3855,
      "Ġespa": 3856,
      "Ġtempo": 3857,
      "ĠWith": 3858,
      "entro": 3859,
      "ĠKe": 3860,
      "Sch": 3861,
      "Ġrif": 3862,
      "tier": 3863,
      "Ġhouse": 3864,
      "ĠcrÃ©": 3865,
      "37": 3866,
      "Ġtoday": 3867,
      "Ġnor": 3868,
      "iques": 3869,
      "Ġquando": 3870,
      "alian": 3871,
      "EM": 3872,
      "vil": 3873,
      "Ġcharacter": 3874,
      "ĠNon": 3875,
      "Ġblo": 3876,
      "bt": 3877,
      "Ġllam": 3878,
      "Ġtogether": 3879,
      "uesta": 3880,
      "\":": 3881,
      "oo": 3882,
      "Ġbeste": 3883,
      "Ġple": 3884,
      "Ġcard": 3885,
      "unktion": 3886,
      "wards": 3887,
      "Ġanno": 3888,
      "Ġinteres": 3889,
      "Ġsubs": 3890,
      "iled": 3891,
      "Ġstudy": 3892,
      "Ġutilizz": 3893,
      "irm": 3894,
      "uth": 3895,
      "itter": 3896,
      "Ġfood": 3897,
      "Ġimportante": 3898,
      "nov": 3899,
      "Ġeither": 3900,
      "Te": 3901,
      "Ġtechni": 3902,
      "Ġsyn": 3903,
      "ĠVal": 3904,
      "ĠPla": 3905,
      "bel": 3906,
      "encias": 3907,
      "Ġtour": 3908,
      "ENT": 3909,
      "ĠÃ©tait": 3910,
      "ĠBra": 3911,
      "ĠKom": 3912,
      "ledge": 3913,
      "ĠNO": 3914,
      "'ll": 3915,
      "olu": 3916,
      "ception": 3917,
      "fre": 3918,
      "Ġauthor": 3919,
      "Ġsiempre": 3920,
      "itions": 3921,
      "igung": 3922,
      "Ġjedoch": 3923,
      "ðŁ": 3924,
      "icios": 3925,
      "ĠÂ»,": 3926,
      "ĠCoun": 3927,
      "Per": 3928,
      "ancia": 3929,
      "kenn": 3930,
      "idence": 3931,
      "Ġcy": 3932,
      "Ġonce": 3933,
      "Ġmucho": 3934,
      "Ġconst": 3935,
      "Ġpoints": 3936,
      "igur": 3937,
      "Ġtoute": 3938,
      "Ġamo": 3939,
      "ĠÃ§": 3940,
      "ĠParis": 3941,
      "erein": 3942,
      "spre": 3943,
      "Ġsoit": 3944,
      "Ġsil": 3945,
      "Ġcommon": 3946,
      "ĠfranÃ§": 3947,
      "Ġsop": 3948,
      "Ġcontre": 3949,
      "Ġja": 3950,
      "side": 3951,
      "auer": 3952,
      "Ġpoi": 3953,
      "apter": 3954,
      "ĠpolÃŃ": 3955,
      "Ġenf": 3956,
      "Ã¤tz": 3957,
      "Ġquality": 3958,
      "lation": 3959,
      "Ġmic": 3960,
      "Ġtener": 3961,
      "Ġleurs": 3962,
      "Ġstudents": 3963,
      "adem": 3964,
      "Ġcosa": 3965,
      "hÃ¤lt": 3966,
      "Ġmembers": 3967,
      "sych": 3968,
      "tio": 3969,
      "annt": 3970,
      "Ġtax": 3971,
      "Ġtable": 3972,
      "Ġknown": 3973,
      "tivos": 3974,
      "jar": 3975,
      "ING": 3976,
      "For": 3977,
      "quer": 3978,
      "Ã©t": 3979,
      "Ġmakes": 3980,
      "Ġaltri": 3981,
      "peti": 3982,
      "Ġteach": 3983,
      "Åĵ": 3984,
      "Ġerfol": 3985,
      "ĠGar": 3986,
      "lim": 3987,
      "Ġsuiv": 3988,
      "90": 3989,
      "Ġ2006": 3990,
      "rup": 3991,
      "Ġtext": 3992,
      "ĠestÃ¡n": 3993,
      "ĠCON": 3994,
      "Ġsimp": 3995,
      "Ġfab": 3996,
      "gung": 3997,
      "Ġot": 3998,
      "maz": 3999,
      "Ġrequire": 4000,
      "Ġstat": 4001,
      "Ġdeut": 4002,
      "ĠArbeits": 4003,
      "Ġarriv": 4004,
      "ĠInformationen": 4005,
      "Ġbed": 4006,
      "ĠNational": 4007,
      "Ãªtre": 4008,
      "Ġgut": 4009,
      "Ġclos": 4010,
      "Ġpueden": 4011,
      "Ġmarket": 4012,
      "Ġmoins": 4013,
      "ĠWebsite": 4014,
      "Ġdove": 4015,
      "Ġfare": 4016,
      "78": 4017,
      "olare": 4018,
      "oy": 4019,
      "ĠJan": 4020,
      "ĠStre": 4021,
      "Ġtor": 4022,
      "ĠDem": 4023,
      "Ġdepuis": 4024,
      "ĠaprÃ¨s": 4025,
      "rar": 4026,
      "unta": 4027,
      "entra": 4028,
      "Ġkomm": 4029,
      "ĠÃ§a": 4030,
      "Ġearly": 4031,
      "Ġcame": 4032,
      "Ġcuenta": 4033,
      "ster": 4034,
      "Ġdesarroll": 4035,
      "heim": 4036,
      "ĠMc": 4037,
      "Ġtratta": 4038,
      "titution": 4039,
      "Ġshort": 4040,
      "aff": 4041,
      "inc": 4042,
      "Ġeinfach": 4043,
      "ĠPour": 4044,
      "Ġsimilar": 4045,
      "Ein": 4046,
      "Ġsuis": 4047,
      "Ġlimit": 4048,
      "igure": 4049,
      "ending": 4050,
      "Ġdate": 4051,
      "ki": 4052,
      "Ġnetwork": 4053,
      "Ġnational": 4054,
      "LA": 4055,
      "Ġprom": 4056,
      "Ġtrabajo": 4057,
      "nahme": 4058,
      "Ã¤ng": 4059,
      "ierten": 4060,
      "ĠAug": 4061,
      "75": 4062,
      "Ġotro": 4063,
      "Ġgovernment": 4064,
      "Ġjud": 4065,
      "Ã©tÃ©": 4066,
      "Ġcommunity": 4067,
      "cheid": 4068,
      "Ġstory": 4069,
      "air": 4070,
      "anks": 4071,
      "Ġavant": 4072,
      "Ġdatos": 4073,
      "Ġentra": 4074,
      "Ġtan": 4075,
      "uses": 4076,
      "Ġble": 4077,
      "Ġtas": 4078,
      "Ġbal": 4079,
      "cks": 4080,
      "Ġ>": 4081,
      "vision": 4082,
      "resse": 4083,
      "laub": 4084,
      "Ġnatural": 4085,
      "Ã¤nder": 4086,
      "Ġpuis": 4087,
      "Ġfatto": 4088,
      "ĠDar": 4089,
      "ĠWelt": 4090,
      "ĊĠĠĠĠĠĠĠĠĠĠĠĠ": 4091,
      "Ġuso": 4092,
      "Ġactually": 4093,
      "grund": 4094,
      "ĠÃºl": 4095,
      "ĠDon": 4096,
      "ills": 4097,
      "Ġautres": 4098,
      "Ġbesch": 4099,
      "zahl": 4100,
      "curity": 4101,
      "Ġlive": 4102,
      "Ġ~": 4103,
      "ĠBre": 4104,
      "enk": 4105,
      "Ġ35": 4106,
      "Ãªte": 4107,
      "Ġ2005": 4108,
      "Ġneeds": 4109,
      "ibles": 4110,
      "ĠdÃ©c": 4111,
      "Ġorganis": 4112,
      "Ġorigin": 4113,
      "Ġquien": 4114,
      "Ġoblig": 4115,
      "Ġbereits": 4116,
      "nisse": 4117,
      "Ġcountry": 4118,
      "ĠUnd": 4119,
      "Ġarch": 4120,
      "Ãºs": 4121,
      "Ġbzw": 4122,
      "Ġconven": 4123,
      "idd": 4124,
      "tained": 4125,
      "ĠBas": 4126,
      "Ġbuy": 4127,
      "Ġprogra": 4128,
      "eres": 4129,
      "Ġregard": 4130,
      "ĠDeutsch": 4131,
      "Ġcause": 4132,
      "ĠHol": 4133,
      "ĠLie": 4134,
      "ahn": 4135,
      "Ã¼ssen": 4136,
      "gest": 4137,
      "pol": 4138,
      "pi": 4139,
      "udes": 4140,
      "ĠIhnen": 4141,
      "bit": 4142,
      "back": 4143,
      "otti": 4144,
      "innen": 4145,
      "igo": 4146,
      "bum": 4147,
      "Ġihrer": 4148,
      "Ġdoing": 4149,
      "osc": 4150,
      "Ġlik": 4151,
      "Ġabsol": 4152,
      "Ġpartir": 4153,
      "Ġalors": 4154,
      "IO": 4155,
      "31": 4156,
      "ĠperchÃ©": 4157,
      "Ġcele": 4158,
      "Ġplease": 4159,
      "cke": 4160,
      "Ġseen": 4161,
      "chieden": 4162,
      "Ġstyle": 4163,
      "qui": 4164,
      "alu": 4165,
      "ogn": 4166,
      "Ġfocus": 4167,
      "Ġdocument": 4168,
      "undes": 4169,
      "mark": 4170,
      "Ġprepar": 4171,
      "stellung": 4172,
      "ators": 4173,
      "Ġpap": 4174,
      "Ġwaren": 4175,
      "usion": 4176,
      "Ġopin": 4177,
      "ension": 4178,
      "ĠBild": 4179,
      "lagen": 4180,
      "Ġ2004": 4181,
      "amil": 4182,
      "Ġhold": 4183,
      "wort": 4184,
      "riff": 4185,
      "ulo": 4186,
      "ĠĠĠĠĠĠĠĠĠĠĠĠ": 4187,
      "Ġclaim": 4188,
      "ĠMor": 4189,
      "Ġappar": 4190,
      "Ġaltern": 4191,
      "Ġgan": 4192,
      "luss": 4193,
      "cing": 4194,
      "Ġandere": 4195,
      "ĠPart": 4196,
      "indi": 4197,
      "Ġ31": 4198,
      "emb": 4199,
      "Ġdieses": 4200,
      "tist": 4201,
      "Ġnight": 4202,
      "omo": 4203,
      "emble": 4204,
      "Ġetwas": 4205,
      "Ġbring": 4206,
      "produ": 4207,
      "Ġmonde": 4208,
      "dt": 4209,
      "Ġperd": 4210,
      "hing": 4211,
      "Ġenjo": 4212,
      "su": 4213,
      "Ġsup": 4214,
      "gleich": 4215,
      "Ġcurrent": 4216,
      "Ġcannot": 4217,
      "jour": 4218,
      "ribution": 4219,
      "Ġapproach": 4220,
      "ĠSim": 4221,
      "Ġdisco": 4222,
      "ĠLond": 4223,
      "Ġtry": 4224,
      "Ġneg": 4225,
      "iendo": 4226,
      "pri": 4227,
      "Ġencu": 4228,
      "Ġtemper": 4229,
      "rea": 4230,
      "issance": 4231,
      "Ġdoesn": 4232,
      "Ġpack": 4233,
      "ĠJahren": 4234,
      "Ġstrong": 4235,
      "Ġcab": 4236,
      "endant": 4237,
      "andid": 4238,
      "find": 4239,
      "teurs": 4240,
      "fÃ©r": 4241,
      "Ġcount": 4242,
      "yes": 4243,
      "esser": 4244,
      "Ġfinden": 4245,
      "Ġsays": 4246,
      "Ġcra": 4247,
      "ĠWenn": 4248,
      "ief": 4249,
      "Ġcommunic": 4250,
      "zug": 4251,
      "hin": 4252,
      "aggio": 4253,
      "Ġpou": 4254,
      "Ġfuture": 4255,
      "illes": 4256,
      "Ġproduction": 4257,
      "Ġeigen": 4258,
      "Ge": 4259,
      "Ġwhether": 4260,
      "ĠmÃ¶glich": 4261,
      "velopp": 4262,
      "Ġaction": 4263,
      "tically": 4264,
      "Ġ2019": 4265,
      "gior": 4266,
      "dien": 4267,
      "ĠAng": 4268,
      "zeug": 4269,
      "ĠGem": 4270,
      "anger": 4271,
      "ieron": 4272,
      "ĠSci": 4273,
      "umb": 4274,
      "cript": 4275,
      "alog": 4276,
      "Ġhowever": 4277,
      "ĠSm": 4278,
      "Ġopportun": 4279,
      "Ã¤re": 4280,
      "Ġrig": 4281,
      "Ġsido": 4282,
      "Ġinternational": 4283,
      "Ġconv": 4284,
      "ĠEine": 4285,
      "arious": 4286,
      "Ġbelow": 4287,
      "Ġmiss": 4288,
      "Ġcontro": 4289,
      "Ġmerc": 4290,
      "ised": 4291,
      "ĠFir": 4292,
      "dis": 4293,
      "issens": 4294,
      "pped": 4295,
      "Ġnote": 4296,
      "uments": 4297,
      "ĠStates": 4298,
      "amer": 4299,
      "eno": 4300,
      "Ġprovided": 4301,
      "Ġavoir": 4302,
      "gang": 4303,
      "agne": 4304,
      "Ã¡l": 4305,
      "Ġserie": 4306,
      "lan": 4307,
      "lass": 4308,
      "Ġquello": 4309,
      "tiques": 4310,
      "Ġvend": 4311,
      "Ġinterpre": 4312,
      "cken": 4313,
      "unci": 4314,
      "zionale": 4315,
      "Ġcapac": 4316,
      "Ġing": 4317,
      "band": 4318,
      "Ġpues": 4319,
      "amt": 4320,
      "orge": 4321,
      "Ġquanto": 4322,
      "but": 4323,
      "Ġgesch": 4324,
      "ĠspÃ©": 4325,
      "Ġqued": 4326,
      "iare": 4327,
      "ky": 4328,
      "Ġmenos": 4329,
      "Ġyet": 4330,
      "izaciÃ³n": 4331,
      "Ġlugar": 4332,
      "ilos": 4333,
      "Ġgas": 4334,
      "ulta": 4335,
      "ĠcosÃ¬": 4336,
      "ibility": 4337,
      "atr": 4338,
      "Ġreport": 4339,
      "ĠWorld": 4340,
      "48": 4341,
      "inas": 4342,
      "come": 4343,
      "ĠDI": 4344,
      "Ġtradition": 4345,
      "ĠComp": 4346,
      "Ġseem": 4347,
      "Ġamong": 4348,
      "Ġsan": 4349,
      "ĠdiffÃ©r": 4350,
      "ources": 4351,
      "Ġpubl": 4352,
      "text": 4353,
      "Ġeasy": 4354,
      "Ġancora": 4355,
      "bile": 4356,
      "Ã¤hl": 4357,
      "ĠJahre": 4358,
      "Ġciudad": 4359,
      "Ġgetting": 4360,
      "Ġfonction": 4361,
      "inge": 4362,
      "Ġterms": 4363,
      "emÃ¡s": 4364,
      "Ġtoutes": 4365,
      "Ġprior": 4366,
      "Ġban": 4367,
      "ĠNot": 4368,
      "Ġalgo": 4369,
      "onom": 4370,
      "atu": 4371,
      "Ġdeal": 4372,
      "Ġspace": 4373,
      "Ġunserer": 4374,
      "Ġ||": 4375,
      "And": 4376,
      "Ġrather": 4377,
      "lique": 4378,
      "ĠStand": 4379,
      "ĠPo": 4380,
      "Ġwhole": 4381,
      "Ġnavig": 4382,
      "ticos": 4383,
      "Ġig": 4384,
      "Ġidentif": 4385,
      "Ġmai": 4386,
      "Ġenergy": 4387,
      "Ġfast": 4388,
      "Ġllev": 4389,
      "prise": 4390,
      "ĠAss": 4391,
      "Ġtook": 4392,
      "Ġprincipal": 4393,
      "Ġestos": 4394,
      "Los": 4395,
      "Ġrate": 4396,
      "rez": 4397,
      "Ġdiesen": 4398,
      "Ġnelle": 4399,
      "Ġcel": 4400,
      "Ġfal": 4401,
      "arr": 4402,
      "Ġtodas": 4403,
      "ÃŁer": 4404,
      "Ġalc": 4405,
      "Ã³lo": 4406,
      "fit": 4407,
      "Ġ#": 4408,
      "05": 4409,
      "Ġmanif": 4410,
      "falls": 4411,
      "32": 4412,
      "Me": 4413,
      "times": 4414,
      "izza": 4415,
      "ĠBel": 4416,
      "ĠPress": 4417,
      "Ġwent": 4418,
      "Ġstandard": 4419,
      "Ġpen": 4420,
      "ality": 4421,
      "Ġacross": 4422,
      "ĠDurch": 4423,
      "Ġdoch": 4424,
      "Ġantes": 4425,
      "ocra": 4426,
      "Ġrim": 4427,
      "ĠCr": 4428,
      "ĠzurÃ¼ck": 4429,
      "arsi": 4430,
      "Ġcit": 4431,
      "Ġjug": 4432,
      "Ġru": 4433,
      "Ġtw": 4434,
      "ĠOrgan": 4435,
      "Ġprice": 4436,
      "Ġfort": 4437,
      "Ġresta": 4438,
      "lichkeit": 4439,
      "65": 4440,
      "ĠmÃ¶": 4441,
      "Ġhon": 4442,
      "Ġhappen": 4443,
      "chos": 4444,
      "ham": 4445,
      "klÃ¤r": 4446,
      "Ġvita": 4447,
      "ĠâĤ¬": 4448,
      "Ġbelieve": 4449,
      "haus": 4450,
      "gend": 4451,
      "ujours": 4452,
      "oche": 4453,
      "Ġyoung": 4454,
      "Ġself": 4455,
      "ĠPub": 4456,
      "ĠFall": 4457,
      "Ġnuestra": 4458,
      "Ġrend": 4459,
      "Ġpatients": 4460,
      "Ġminutes": 4461,
      "Ġarticle": 4462,
      ".:": 4463,
      "ake": 4464,
      "omas": 4465,
      "Ġfrequ": 4466,
      "ĠStr": 4467,
      "Ġlabor": 4468,
      "ĠFer": 4469,
      "Ġcompar": 4470,
      "ĠAL": 4471,
      "vano": 4472,
      "Ġvu": 4473,
      "ensa": 4474,
      "Ġintrodu": 4475,
      "Ġrequired": 4476,
      "Ġthird": 4477,
      "ĠÃ¶": 4478,
      "Ġinterna": 4479,
      "ĠCO": 4480,
      "Ġpoder": 4481,
      "ientes": 4482,
      "ĠTod": 4483,
      "Ġfurther": 4484,
      "Ġdecid": 4485,
      "osto": 4486,
      "cons": 4487,
      "Ġjob": 4488,
      "ĠSome": 4489,
      "Ġage": 4490,
      "Ġnews": 4491,
      "Ġ80": 4492,
      "Ġtoujours": 4493,
      "ĠEst": 4494,
      "Ġpel": 4495,
      "urz": 4496,
      "lor": 4497,
      "Ġsize": 4498,
      "Ġverschieden": 4499,
      "Ġcreate": 4500,
      "Ġstrateg": 4501,
      "char": 4502,
      "bon": 4503,
      "IP": 4504,
      "Ã©m": 4505,
      "CE": 4506,
      "ieurs": 4507,
      "Ġperformance": 4508,
      "asing": 4509,
      "off": 4510,
      "Ġcompon": 4511,
      "zy": 4512,
      "Ġoptim": 4513,
      "Ġseit": 4514,
      "hÃ¶": 4515,
      "ĠlÃŃ": 4516,
      "ĠGi": 4517,
      "elves": 4518,
      "ĠSchw": 4519,
      "tischen": 4520,
      "ĠEnts": 4521,
      "ĠFace": 4522,
      "Ġdov": 4523,
      "Ġdice": 4524,
      "Ġhttp": 4525,
      "Ġerst": 4526,
      "Ġalcun": 4527,
      "ĠRed": 4528,
      "Ġversion": 4529,
      "Ġvit": 4530,
      "Ġexist": 4531,
      "ĠfÃ¼hr": 4532,
      "Ġdecir": 4533,
      "Ġkonn": 4534,
      "Ã¤d": 4535,
      "ierno": 4536,
      "Ġ2003": 4537,
      "Ġdedic": 4538,
      "Ġsqu": 4539,
      "rait": 4540,
      "fully": 4541,
      "Ġhabit": 4542,
      "AG": 4543,
      "ĠmÃ¼ssen": 4544,
      "Ġdifficult": 4545,
      "âĪ": 4546,
      "Ġzusammen": 4547,
      "Ġnouve": 4548,
      "Ġdabei": 4549,
      "Ġsag": 4550,
      "44": 4551,
      "iedad": 4552,
      "ynam": 4553,
      "ram": 4554,
      "cido": 4555,
      "Ġsue": 4556,
      "where": 4557,
      "Ġprimer": 4558,
      "Ġseries": 4559,
      "Ġhar": 4560,
      "irit": 4561,
      "iser": 4562,
      "Ġextern": 4563,
      "Ġchanges": 4564,
      "Ġsatis": 4565,
      "Ġnuestro": 4566,
      "hic": 4567,
      "stead": 4568,
      "esti": 4569,
      "ĠMais": 4570,
      "ĠCap": 4571,
      "fÃ¤": 4572,
      "Ġhistory": 4573,
      "ival": 4574,
      "Ġ--": 4575,
      "trag": 4576,
      "ietÃł": 4577,
      "Ġtres": 4578,
      "omin": 4579,
      "gent": 4580,
      "Ġsomeone": 4581,
      "IR": 4582,
      "ĠZwe": 4583,
      "Ġcours": 4584,
      "Ġsituation": 4585,
      "cil": 4586,
      "Ġwelche": 4587,
      "vert": 4588,
      "Ġlic": 4589,
      "Ġrev": 4590,
      "Ġaffe": 4591,
      "Ġrip": 4592,
      "Ġton": 4593,
      "Ġkey": 4594,
      "eten": 4595,
      "upe": 4596,
      "ĠSol": 4597,
      "Ġdescrib": 4598,
      "ĠSpiel": 4599,
      "zt": 4600,
      "Ġarm": 4601,
      "Ph": 4602,
      "Ġland": 4603,
      "Ġwon": 4604,
      "essa": 4605,
      "................": 4606,
      "ollen": 4607,
      "ĠdespuÃ©s": 4608,
      "bau": 4609,
      "Ġculture": 4610,
      "Ġseason": 4611,
      "Ġanything": 4612,
      "bie": 4613,
      "ĠwÃ¼r": 4614,
      "ĠSon": 4615,
      "Ġsystems": 4616,
      "Ġextre": 4617,
      "inos": 4618,
      "TR": 4619,
      "ĠAns": 4620,
      "ĠMart": 4621,
      "rank": 4622,
      "ivo": 4623,
      "Ġ2020": 4624,
      "Ġobten": 4625,
      "Ġimag": 4626,
      "Ġfall": 4627,
      "utto": 4628,
      "Ġotra": 4629,
      "Ã¤hrend": 4630,
      "icial": 4631,
      "Ġfix": 4632,
      "Ġped": 4633,
      "lauf": 4634,
      "lace": 4635,
      "ĠProble": 4636,
      "Ġrelationship": 4637,
      "aking": 4638,
      "fÃ¼r": 4639,
      "Ġdemand": 4640,
      "ÃŃo": 4641,
      "ĠRechts": 4642,
      "ĠprÃ©sent": 4643,
      "Ġesa": 4644,
      "esen": 4645,
      "ĠDan": 4646,
      "Ġquick": 4647,
      "Ġemo": 4648,
      "Ġweil": 4649,
      "ĠhabÃŃa": 4650,
      "Ġstructure": 4651,
      "ĠGew": 4652,
      "??": 4653,
      "ĠTV": 4654,
      "Ġconsid": 4655,
      "Ġbin": 4656,
      "Ġpic": 4657,
      "ardo": 4658,
      "ĠDios": 4659,
      "Ġenvironment": 4660,
      "este": 4661,
      "oms": 4662,
      "Ġadap": 4663,
      "Ġ2002": 4664,
      "ĠTor": 4665,
      "Ġsem": 4666,
      "lieÃŁ": 4667,
      "Ġshare": 4668,
      "arlo": 4669,
      "Ġmaxim": 4670,
      "Ã©l": 4671,
      "urt": 4672,
      "Ġgeht": 4673,
      "fang": 4674,
      "atro": 4675,
      "iously": 4676,
      "Ġils": 4677,
      "Ġsix": 4678,
      "Er": 4679,
      "inner": 4680,
      "Ġmachen": 4681,
      "Ġsection": 4682,
      "ĠService": 4683,
      "uros": 4684,
      "Ġperfect": 4685,
      "Ġdit": 4686,
      "Ġfeatures": 4687,
      "Ġcode": 4688,
      "iele": 4689,
      "Ġcomplex": 4690,
      "ĠState": 4691,
      "Ġproprio": 4692,
      "Ã³m": 4693,
      "ĠFo": 4694,
      "Ġvac": 4695,
      "',": 4696,
      "Ã¶glichkeit": 4697,
      "Ġpercent": 4698,
      "ĠEm": 4699,
      "Ġembar": 4700,
      "ĠJes": 4701,
      "Ã´t": 4702,
      "Ġmedi": 4703,
      "itos": 4704,
      "Ġrange": 4705,
      "Ġproblems": 4706,
      "lem": 4707,
      "ams": 4708,
      "Ġbestimm": 4709,
      "ĠdÃ©velopp": 4710,
      "via": 4711,
      "Ġcorrespond": 4712,
      "Ġtex": 4713,
      "Ġproye": 4714,
      "itation": 4715,
      "ding": 4716,
      "omet": 4717,
      "Ġproblema": 4718,
      "organ": 4719,
      "aller": 4720,
      "Ġtaken": 4721,
      "Ġclear": 4722,
      "Ġproject": 4723,
      "ogo": 4724,
      "Ġallem": 4725,
      "ĠâĪĴ": 4726,
      "Ġminim": 4727,
      "Ġarr": 4728,
      "Ġavait": 4729,
      "uage": 4730,
      "volution": 4731,
      "aged": 4732,
      "olle": 4733,
      "Ġwind": 4734,
      "fte": 4735,
      "ria": 4736,
      "Ġscienti": 4737,
      "Ġcomes": 4738,
      "ĠProf": 4739,
      "Ġaplic": 4740,
      "etzen": 4741,
      "Ġnouv": 4742,
      "Ġihm": 4743,
      "eller": 4744,
      "orta": 4745,
      "Ġestim": 4746,
      "55": 4747,
      "Ġpolicy": 4748,
      "ĠSE": 4749,
      "ĠMag": 4750,
      "Ġsino": 4751,
      "Ġcul": 4752,
      "!!!": 4753,
      "Ġestado": 4754,
      "Ġapplication": 4755,
      "Ġfest": 4756,
      "Ġhours": 4757,
      "ograf": 4758,
      "Ġfore": 4759,
      "cies": 4760,
      "Ġautre": 4761,
      "Ġvarious": 4762,
      "inning": 4763,
      "49": 4764,
      "Ġcut": 4765,
      "ĠBy": 4766,
      "rad": 4767,
      "Ġnation": 4768,
      "Ġprofes": 4769,
      "ĠMich": 4770,
      "ĠNorth": 4771,
      "Ġupon": 4772,
      "Ġelse": 4773,
      "Ġimage": 4774,
      "Ġ90": 4775,
      "AB": 4776,
      "Ġpremier": 4777,
      "Ġfile": 4778,
      "Ġpopular": 4779,
      "Ġwalk": 4780,
      "Ġotras": 4781,
      "Ġconoci": 4782,
      "Ġcategor": 4783,
      "Ġgaranti": 4784,
      "Ġmonths": 4785,
      "ĠProz": 4786,
      "Ġmanera": 4787,
      "66": 4788,
      "Ġ2001": 4789,
      "anos": 4790,
      "ktur": 4791,
      "riter": 4792,
      "unicip": 4793,
      "Ġsearch": 4794,
      "Ġrid": 4795,
      "ored": 4796,
      "ĠWind": 4797,
      "ĠGeneral": 4798,
      "Ġfriends": 4799,
      "OD": 4800,
      "ax": 4801,
      "cos": 4802,
      "Ġbad": 4803,
      "rÃŃa": 4804,
      "Ġadop": 4805,
      "Ġcity": 4806,
      "Ġmillion": 4807,
      "ĠEspa": 4808,
      "udo": 4809,
      "ĠFÃ¼r": 4810,
      "cidad": 4811,
      "UL": 4812,
      "atory": 4813,
      "Ġdazu": 4814,
      "Ġlassen": 4815,
      "top": 4816,
      "Ġbor": 4817,
      "\">": 4818,
      "Ġstarted": 4819,
      "sprech": 4820,
      "Ġtold": 4821,
      "inte": 4822,
      "tres": 4823,
      "Pour": 4824,
      "inks": 4825,
      "Ġtienen": 4826,
      "fon": 4827,
      "Ġnear": 4828,
      "Ġcru": 4829,
      "rer": 4830,
      "Ġfront": 4831,
      "erve": 4832,
      "uno": 4833,
      "iero": 4834,
      "Ġersten": 4835,
      "Category": 4836,
      "ĠRuss": 4837,
      "Ġissues": 4838,
      "Ġexpe": 4839,
      "ĠSub": 4840,
      "What": 4841,
      "ray": 4842,
      "Ġconfer": 4843,
      "ington": 4844,
      "TER": 4845,
      "All": 4846,
      "ĠRad": 4847,
      "tien": 4848,
      "ĠDeutschland": 4849,
      "istance": 4850,
      "Ġshall": 4851,
      "Ġfamili": 4852,
      "ĠGl": 4853,
      "ĠProgram": 4854,
      "ĠChrist": 4855,
      "Ġsen": 4856,
      "Ġquale": 4857,
      "Ġwid": 4858,
      "tivitÃł": 4859,
      "Ġgrup": 4860,
      "Ġprovin": 4861,
      "Ġquella": 4862,
      "ml": 4863,
      "ĠSel": 4864,
      "coup": 4865,
      "ĠDel": 4866,
      "ified": 4867,
      "ĠSee": 4868,
      "Ġnada": 4869,
      "abile": 4870,
      "Ġentire": 4871,
      "Ġeverything": 4872,
      "ester": 4873,
      "ape": 4874,
      "tschaft": 4875,
      "Ġmedio": 4876,
      "Ġprimera": 4877,
      "reis": 4878,
      "arth": 4879,
      "OC": 4880,
      "pper": 4881,
      "Ġvra": 4882,
      "Ġhalf": 4883,
      "ustry": 4884,
      "recht": 4885,
      "Â¿": 4886,
      "ggio": 4887,
      "ification": 4888,
      "Ġflu": 4889,
      "Ġshows": 4890,
      "Ġbie": 4891,
      "ĠtravÃ©s": 4892,
      "graph": 4893,
      "illed": 4894,
      "Ġsoftware": 4895,
      "Ġtrois": 4896,
      "Ġalmost": 4897,
      "ĠBeg": 4898,
      "Ġmilit": 4899,
      "Ġpon": 4900,
      "ĠLebens": 4901,
      "ĠBerlin": 4902,
      "Ġquer": 4903,
      "Ġpeti": 4904,
      "Ġ70": 4905,
      "Ã³g": 4906,
      "Ġvolta": 4907,
      "Ã¤ÃŁ": 4908,
      "zogen": 4909,
      "ĠPark": 4910,
      "ĠcÃ³": 4911,
      "gas": 4912,
      "Ġtrop": 4913,
      "ĠBesch": 4914,
      "Ġnuevo": 4915,
      "urer": 4916,
      "ĠsÃ³lo": 4917,
      "Ġquelques": 4918,
      "Ġhecho": 4919,
      "ĠSur": 4920,
      "cen": 4921,
      "ĠÏ": 4922,
      "ĠquÃ©": 4923,
      "ĠFacebook": 4924,
      "ĠMore": 4925,
      "Ġunsere": 4926,
      "Ġ45": 4927,
      "Ġvan": 4928,
      "ondere": 4929,
      "odes": 4930,
      "Ġliter": 4931,
      "fern": 4932,
      "Ġellos": 4933,
      "Ġfaut": 4934,
      "itte": 4935,
      "uÃŁ": 4936,
      "kehr": 4937,
      "Ġcela": 4938,
      "isis": 4939,
      "Ġjou": 4940,
      "Ġdomin": 4941,
      "ĠApr": 4942,
      "Ġtrue": 4943,
      "Ġseems": 4944,
      "Ġsignificant": 4945,
      "ners": 4946,
      "Ġdif": 4947,
      "artic": 4948,
      "46": 4949,
      "Ġwords": 4950,
      "ĠAfter": 4951,
      "emple": 4952,
      "leit": 4953,
      "Ġpartie": 4954,
      "hab": 4955,
      "Ġhope": 4956,
      "ĠKo": 4957,
      "osi": 4958,
      "Ġeig": 4959,
      "orio": 4960,
      "Ġcontinue": 4961,
      "Ġjeder": 4962,
      "anted": 4963,
      "clar": 4964,
      "bei": 4965,
      "Ġinner": 4966,
      "ĠArbeit": 4967,
      "ĠPra": 4968,
      "umento": 4969,
      "itch": 4970,
      "tent": 4971,
      "estiv": 4972,
      "fall": 4973,
      "Ã¡g": 4974,
      "PS": 4975,
      "han": 4976,
      "Ġrecommend": 4977,
      "Ġrel": 4978,
      "Ġquite": 4979,
      "Ġregion": 4980,
      "Ġstesso": 4981,
      "cÃ©": 4982,
      "uras": 4983,
      "Ġletz": 4984,
      "cie": 4985,
      "Ġshown": 4986,
      "uchen": 4987,
      "Ġcerta": 4988,
      "Ġflo": 4989,
      "olution": 4990,
      "07": 4991,
      "rift": 4992,
      "ĠÂ».": 4993,
      "Ġfolg": 4994,
      "aupt": 4995,
      "Ġestabl": 4996,
      "Ġsolution": 4997,
      "Ġrespect": 4998,
      "Ġsource": 4999,
      "olf": 5000,
      "Ġtreatment": 5001,
      "Ã¯": 5002,
      "ops": 5003,
      "oden": 5004,
      "lior": 5005,
      "Ġproget": 5006,
      "Ġetwa": 5007,
      "ĠpÃºblic": 5008,
      "Ġconserv": 5009,
      "Ġdispla": 5010,
      "Ġviele": 5011,
      "Ġihn": 5012,
      "ĠBundes": 5013,
      "Ġausge": 5014,
      "Ġvirt": 5015,
      "ael": 5016,
      "imin": 5017,
      "ĠÃĦ": 5018,
      "Ġnar": 5019,
      "08": 5020,
      "ivel": 5021,
      "Ġlegal": 5022,
      "ĠWest": 5023,
      "Ġaccep": 5024,
      "47": 5025,
      "Ġneue": 5026,
      "ĠdonnÃ©es": 5027,
      "Ġcandid": 5028,
      "ging": 5029,
      "vas": 5030,
      "Ġverdad": 5031,
      "Ġclub": 5032,
      "ban": 5033,
      "ĠðŁ": 5034,
      "Ġjur": 5035,
      "Ġanalysis": 5036,
      "itÃ¤": 5037,
      "istes": 5038,
      "Ġblack": 5039,
      "irs": 5040,
      "wicklung": 5041,
      "fri": 5042,
      "ĠJu": 5043,
      "ĠSeite": 5044,
      "Ġcases": 5045,
      "Ġdai": 5046,
      "oin": 5047,
      "Ġmondo": 5048,
      "Ġdeg": 5049,
      "arbeitung": 5050,
      "Ġtravail": 5051,
      "aterial": 5052,
      "Ġcondition": 5053,
      "95": 5054,
      "quÃ©": 5055,
      "Ġclose": 5056,
      "Ġpropor": 5057,
      "Ġprobably": 5058,
      "ĠTHE": 5059,
      "Ġsites": 5060,
      "bol": 5061,
      "lies": 5062,
      "lik": 5063,
      "ienza": 5064,
      "197": 5065,
      "onse": 5066,
      "Ġmatter": 5067,
      "âĢ¦âĢ¦": 5068,
      "Ġmuj": 5069,
      "inem": 5070,
      "Ġinteress": 5071,
      "Ġespecially": 5072,
      "ĠAuch": 5073,
      "ĠMac": 5074,
      "Ġworks": 5075,
      "Ġcum": 5076,
      "ĠFrank": 5077,
      "Ġissue": 5078,
      "Ġpath": 5079,
      "ĠQual": 5080,
      "Ġtempor": 5081,
      "schied": 5082,
      "Ġmov": 5083,
      "Ġdenn": 5084,
      "alen": 5085,
      "Ġdebe": 5086,
      "ĠFol": 5087,
      "Ġur": 5088,
      "Ġmand": 5089,
      "tte": 5090,
      "gono": 5091,
      "ĠSoc": 5092,
      "Ġmention": 5093,
      "heits": 5094,
      "ĠdÃŃas": 5095,
      "Ġinternet": 5096,
      "Ġknowledge": 5097,
      "Ġsurface": 5098,
      "Ġante": 5099,
      "Ġamount": 5100,
      "richt": 5101,
      "tiz": 5102,
      "lection": 5103,
      "punkt": 5104,
      "Ġther": 5105,
      "Ġheart": 5106,
      "Ġjetzt": 5107,
      "Ġglobal": 5108,
      "Ġrole": 5109,
      "Ġpain": 5110,
      "Ġsatisf": 5111,
      "Ich": 5112,
      "100": 5113,
      "Ġprimo": 5114,
      "ĠStadt": 5115,
      "osta": 5116,
      "Ġhigher": 5117,
      "Ġbehav": 5118,
      "Ġsubject": 5119,
      "Ġperman": 5120,
      "itig": 5121,
      "atte": 5122,
      "NA": 5123,
      "Ġeinge": 5124,
      "Ġahora": 5125,
      "Ġadj": 5126,
      "03": 5127,
      "Ġresid": 5128,
      "Ġitems": 5129,
      "ĠInternational": 5130,
      "crip": 5131,
      "ĠJap": 5132,
      "04": 5133,
      "Ġlavoro": 5134,
      "Ġparticul": 5135,
      "Ġtur": 5136,
      "Ġago": 5137,
      "Ġfive": 5138,
      "Ġcapital": 5139,
      "ented": 5140,
      "Ġsense": 5141,
      "ĠfranÃ§ais": 5142,
      "ĠgiÃł": 5143,
      "ague": 5144,
      "izioni": 5145,
      "Im": 5146,
      "Ġpict": 5147,
      "rieben": 5148,
      "Ġtaking": 5149,
      "Ġexpress": 5150,
      "Ġexpos": 5151,
      "Ġneeded": 5152,
      "Ġrisk": 5153,
      "Ġusu": 5154,
      "ĠDavid": 5155,
      "ctif": 5156,
      "Ġprogress": 5157,
      "amin": 5158,
      "****": 5159,
      "Ġtrying": 5160,
      "Ġemer": 5161,
      "ĠOF": 5162,
      "Ġcalcul": 5163,
      "Ġfit": 5164,
      "Ġconna": 5165,
      "Ġexplic": 5166,
      "CO": 5167,
      "zzo": 5168,
      "bi": 5169,
      "izar": 5170,
      "Ġmanagement": 5171,
      "Ġofre": 5172,
      "ĠUSA": 5173,
      "Ã¶l": 5174,
      "Ġareas": 5175,
      "Ġevalu": 5176,
      "Ġestar": 5177,
      "Ġkom": 5178,
      "09": 5179,
      "Ġdrei": 5180,
      "ĠZahl": 5181,
      "ologÃŃa": 5182,
      "Ġstre": 5183,
      "Ġpun": 5184,
      "Ġdroit": 5185,
      "Ġsimply": 5186,
      "cin": 5187,
      "ford": 5188,
      "Ãªt": 5189,
      "Ġlikely": 5190,
      "ĠMi": 5191,
      "Ġquindi": 5192,
      "Ġcosas": 5193,
      "toff": 5194,
      "06": 5195,
      "MA": 5196,
      "van": 5197,
      "ommes": 5198,
      "Ġprix": 5199,
      "zieh": 5200,
      "icaciÃ³n": 5201,
      "ĠDat": 5202,
      "ppe": 5203,
      "Ġnothing": 5204,
      "Ġrag": 5205,
      "Ġcompte": 5206,
      "ĠMr": 5207,
      "Ġallen": 5208,
      "bind": 5209,
      "Ã©c": 5210,
      "ĠCity": 5211,
      "Ġmanten": 5212,
      "Ġimmed": 5213,
      "Ġwonder": 5214,
      "Ġgest": 5215,
      "Ġfino": 5216,
      "altung": 5217,
      "ĠGeb": 5218,
      "Ġgratu": 5219,
      "ĠGerman": 5220,
      "ision": 5221,
      "ĠAk": 5222,
      "ĠÃĸ": 5223,
      "Ġdeath": 5224,
      "Ġsollte": 5225,
      "ĠKinder": 5226,
      "ĠrÃ©alis": 5227,
      "Ġusually": 5228,
      "Ġbreak": 5229,
      "Ġcentro": 5230,
      "Ã©qu": 5231,
      "Ã©rica": 5232,
      "bles": 5233,
      "ising": 5234,
      "Ġplusieurs": 5235,
      "lege": 5236,
      "Ã©ration": 5237,
      "usta": 5238,
      "Ġuser": 5239,
      "Ġnego": 5240,
      "ĠÃ©p": 5241,
      "ĠOur": 5242,
      "Por": 5243,
      "UT": 5244,
      "Ġimprove": 5245,
      "istic": 5246,
      "Ġnat": 5247,
      "Ġincon": 5248,
      "Ġcompan": 5249,
      "Ġfriend": 5250,
      "Ġsyst": 5251,
      "02": 5252,
      "Ġrecher": 5253,
      "Ġjusqu": 5254,
      "uale": 5255,
      "uver": 5256,
      "Ġestas": 5257,
      "Ġconver": 5258,
      "Ġrelev": 5259,
      "Ġdiv": 5260,
      "Ã¶ff": 5261,
      "Ġalles": 5262,
      "nel": 5263,
      "Ġafin": 5264,
      "rÃł": 5265,
      "There": 5266,
      "Ġindepend": 5267,
      "ĠEL": 5268,
      "Ġpick": 5269,
      "Â».": 5270,
      "unes": 5271,
      "Ġwww": 5272,
      "Ġdoit": 5273,
      "Ġforce": 5274,
      "vere": 5275,
      "tout": 5276,
      "ĠRich": 5277,
      "Ġtransfer": 5278,
      "Ġlung": 5279,
      "fico": 5280,
      "jas": 5281,
      "change": 5282,
      "Ġaunque": 5283,
      "jes": 5284,
      "Ġattend": 5285,
      "AA": 5286,
      "bas": 5287,
      "hel": 5288,
      "Ġvoll": 5289,
      "isme": 5290,
      "ĠQUE": 5291,
      "Ġapro": 5292,
      "Ġmedic": 5293,
      "schn": 5294,
      "ĠMen": 5295,
      "Ġlower": 5296,
      "Ġelement": 5297,
      "Ġsotto": 5298,
      "Ġpetit": 5299,
      "kon": 5300,
      "uo": 5301,
      "Ġcontemp": 5302,
      "ocal": 5303,
      "Ġcapit": 5304,
      "till": 5305,
      "cident": 5306,
      "ĠUna": 5307,
      "Ġtypes": 5308,
      "public": 5309,
      "ĠseÃ±": 5310,
      "iale": 5311,
      "Ġband": 5312,
      "ĠRE": 5313,
      "Ġrit": 5314,
      "pping": 5315,
      "ĠPaul": 5316,
      "Ġsud": 5317,
      "Ġdestin": 5318,
      "Ġpersonnes": 5319,
      "jÃł": 5320,
      "čĊč": 5321,
      "aces": 5322,
      "Ġpopulation": 5323,
      "ichen": 5324,
      "Ġsug": 5325,
      "Ã¤tig": 5326,
      "ostr": 5327,
      "mus": 5328,
      "mens": 5329,
      "ensive": 5330,
      "hren": 5331,
      "imp": 5332,
      "forme": 5333,
      "Ġverw": 5334,
      "Ġeben": 5335,
      "Ġconvers": 5336,
      "Ġcomputer": 5337,
      "Ġreading": 5338,
      "Ġrisp": 5339,
      "Ġunique": 5340,
      "67": 5341,
      "ĠPlan": 5342,
      "Ġgirl": 5343,
      "osse": 5344,
      "ĠBus": 5345,
      "Ġproperty": 5346,
      "Ġanaly": 5347,
      "Ġnie": 5348,
      "onders": 5349,
      "Ġsic": 5350,
      "ĠHier": 5351,
      "ĠUs": 5352,
      "Ġcasi": 5353,
      "Ġning": 5354,
      "âĤ¬": 5355,
      "Ġquand": 5356,
      "Ġspr": 5357,
      "ĠLondon": 5358,
      "ipping": 5359,
      "ientras": 5360,
      "Ġprovides": 5361,
      "wendung": 5362,
      "Sh": 5363,
      "ĨĴ": 5364,
      "ried": 5365,
      "autres": 5366,
      "tiven": 5367,
      "Ġintegra": 5368,
      "Ġseinen": 5369,
      "Ġihren": 5370,
      "Ġpul": 5371,
      "tima": 5372,
      "ĠGen": 5373,
      "illo": 5374,
      "Ġkommt": 5375,
      "mine": 5376,
      "ĠHist": 5377,
      "Ġled": 5378,
      "Ġbrow": 5379,
      "ĠConse": 5380,
      "ĠKar": 5381,
      "gabe": 5382,
      "bildung": 5383,
      "Ġkm": 5384,
      "\\/": 5385,
      "ĠAugust": 5386,
      "Ġinten": 5387,
      "Ġinvest": 5388,
      "68": 5389,
      "Ġsecondo": 5390,
      "ÃŃculo": 5391,
      "Ġmeet": 5392,
      "oten": 5393,
      "Ġderen": 5394,
      "ĠBau": 5395,
      "ĠTag": 5396,
      "ĠBri": 5397,
      "003": 5398,
      "tici": 5399,
      "Ġcm": 5400,
      "ĠMass": 5401,
      "ĠNor": 5402,
      "ĠBuch": 5403,
      "Ġmoy": 5404,
      "umen": 5405,
      "ĠlÃł": 5406,
      "Ġloss": 5407,
      "ielle": 5408,
      "Ġnecessary": 5409,
      "Ġblock": 5410,
      "Ġdenen": 5411,
      "ril": 5412,
      "illeurs": 5413,
      "ishing": 5414,
      "cles": 5415,
      "ilosoph": 5416,
      "Ġachie": 5417,
      "ĠhÃ¶": 5418,
      "But": 5419,
      "bung": 5420,
      "prend": 5421,
      "dr": 5422,
      "Ġjewe": 5423,
      "ĠZusammen": 5424,
      "Ġliegt": 5425,
      "ĠChristi": 5426,
      "Ġfoot": 5427,
      "ĠSouth": 5428,
      "Ġexclus": 5429,
      "ĠPrin": 5430,
      "iers": 5431,
      "Ġpp": 5432,
      "ength": 5433,
      "Ġpossono": 5434,
      "Ġdentro": 5435,
      "apit": 5436,
      "pez": 5437,
      "Ġguard": 5438,
      "rael": 5439,
      "telle": 5440,
      "ĠDen": 5441,
      "ota": 5442,
      "Ġhistor": 5443,
      "ĠAmerica": 5444,
      "timo": 5445,
      "Ġsuoi": 5446,
      "Ġincor": 5447,
      "Ġjam": 5448,
      "Ġ1999": 5449,
      "Ġparty": 5450,
      "Ġwanted": 5451,
      "jects": 5452,
      "ahmen": 5453,
      "gos": 5454,
      "ives": 5455,
      "Ġexpla": 5456,
      "Ġsteht": 5457,
      "ĠLin": 5458,
      "ĠInstit": 5459,
      "Ġchez": 5460,
      "Ġtoda": 5461,
      "Ġestable": 5462,
      "ĠSaint": 5463,
      "ĠFahr": 5464,
      "mission": 5465,
      "Ġindustry": 5466,
      "Ġreceive": 5467,
      "Ġnivel": 5468,
      "Ġgestion": 5469,
      "Ġrelated": 5470,
      "Ã¤m": 5471,
      "Ġclim": 5472,
      "tex": 5473,
      "gestellt": 5474,
      "Ġminist": 5475,
      "Ġincrease": 5476,
      "Ġpolitical": 5477,
      "Ġcommercial": 5478,
      "Ġcharge": 5479,
      "Ġdalle": 5480,
      "isiÃ³n": 5481,
      "eds": 5482,
      "bet": 5483,
      "Ġschn": 5484,
      "Ġcoup": 5485,
      "Ġdello": 5486,
      "ĠImp": 5487,
      "Ġestud": 5488,
      "Ġwait": 5489,
      "Ġerhalten": 5490,
      "Ġpossibil": 5491,
      "Ġmois": 5492,
      "'d": 5493,
      "iso": 5494,
      "Ġtutte": 5495,
      "Ġlibro": 5496,
      "amed": 5497,
      "Ġcontrib": 5498,
      "Ġcompeti": 5499,
      "Ġjours": 5500,
      "iÃŁ": 5501,
      "Ġrestaur": 5502,
      "Ġ{": 5503,
      "atten": 5504,
      "Ġful": 5505,
      "iere": 5506,
      "DE": 5507,
      "Ġchaque": 5508,
      "Ġinstru": 5509,
      "Ġregular": 5510,
      "III": 5511,
      "illion": 5512,
      "ĠLeist": 5513,
      "Ġbeaucoup": 5514,
      "ĠSw": 5515,
      "tty": 5516,
      "aban": 5517,
      "Ġcet": 5518,
      "Is": 5519,
      "head": 5520,
      "Ġmuchos": 5521,
      "ĠElle": 5522,
      "Ġtrov": 5523,
      "Ġentsprech": 5524,
      "ĠSen": 5525,
      "ĠYour": 5526,
      "elling": 5527,
      "ĠEmp": 5528,
      "Ġparents": 5529,
      "SS": 5530,
      "Ġvale": 5531,
      "itable": 5532,
      "imos": 5533,
      "Ġwhite": 5534,
      "isce": 5535,
      "Ġdistin": 5536,
      "wise": 5537,
      "phone": 5538,
      "gin": 5539,
      "PR": 5540,
      "ĠLet": 5541,
      "Ġmechan": 5542,
      "ĠnÃº": 5543,
      "Ġaccording": 5544,
      "88": 5545,
      "erca": 5546,
      "rat": 5547,
      "Ġmort": 5548,
      "etzung": 5549,
      "ym": 5550,
      "ĠOff": 5551,
      "ĠPat": 5552,
      "ĠHaus": 5553,
      "gemein": 5554,
      "Ġfot": 5555,
      "Ġoppos": 5556,
      "aging": 5557,
      "hmen": 5558,
      "cular": 5559,
      "ĠApril": 5560,
      "Ġanswer": 5561,
      "Ġbox": 5562,
      "64": 5563,
      "itting": 5564,
      "ĠPf": 5565,
      "ĠCamp": 5566,
      "Ġupd": 5567,
      "Ġitself": 5568,
      "urance": 5569,
      "aw": 5570,
      "Ġinformazioni": 5571,
      "ufact": 5572,
      "Ġflow": 5573,
      "ĠIII": 5574,
      "Ġasked": 5575,
      "ued": 5576,
      "see": 5577,
      "esch": 5578,
      "lied": 5579,
      "anten": 5580,
      "Ġindustri": 5581,
      "Ġvoy": 5582,
      "rach": 5583,
      "ĠUnternehmen": 5584,
      "Ġstata": 5585,
      "Ġvalid": 5586,
      "Wir": 5587,
      "ellschaft": 5588,
      "enze": 5589,
      "Ġoccas": 5590,
      "Ġpeuvent": 5591,
      "lang": 5592,
      "uerdo": 5593,
      "Ġkein": 5594,
      "ĠHis": 5595,
      "Ġdemon": 5596,
      "Ġvoir": 5597,
      "ĠRegel": 5598,
      "Ġprecis": 5599,
      "Ġunos": 5600,
      "ationen": 5601,
      "ĠpremiÃ¨re": 5602,
      "ĠBeispiel": 5603,
      "ateurs": 5604,
      "Ġextens": 5605,
      "ĠMet": 5606,
      "ĠdÃ©jÃł": 5607,
      "Ġadministra": 5608,
      "Ġmoi": 5609,
      "kommen": 5610,
      "cal": 5611,
      "rict": 5612,
      "Ġsho": 5613,
      "Ġpotential": 5614,
      "die": 5615,
      "Ġpeque": 5616,
      "ospital": 5617,
      "cier": 5618,
      "ource": 5619,
      "cide": 5620,
      "allo": 5621,
      "ĠOnline": 5622,
      "Ġways": 5623,
      "Ġoccur": 5624,
      "Ġreceived": 5625,
      "Ã¨ne": 5626,
      "Am": 5627,
      "umn": 5628,
      "ĠSk": 5629,
      "Ġexisten": 5630,
      "Ġalt": 5631,
      "ĠkÃ¶nn": 5632,
      "esp": 5633,
      "ĠÃºn": 5634,
      "Ġquat": 5635,
      "prÃ¼": 5636,
      "How": 5637,
      "To": 5638,
      "ĠSuper": 5639,
      "Ġbou": 5640,
      "Par": 5641,
      "Ġinstitu": 5642,
      "Ġseule": 5643,
      "IE": 5644,
      "Ġgente": 5645,
      "ĠEnerg": 5646,
      "otros": 5647,
      "Ġella": 5648,
      "Ġoccup": 5649,
      "tamente": 5650,
      "Ġoutside": 5651,
      "Ġlonger": 5652,
      "Ġtechnology": 5653,
      "ĠSocial": 5654,
      "hang": 5655,
      "yper": 5656,
      "ĠSystem": 5657,
      "ĠJean": 5658,
      "Ġeinmal": 5659,
      "Ġliving": 5660,
      "Ġrights": 5661,
      "Ġnave": 5662,
      "isted": 5663,
      "Ġlate": 5664,
      "Ġsubst": 5665,
      "Ġwatch": 5666,
      "Ġinj": 5667,
      "Ġeffects": 5668,
      "Ġneuen": 5669,
      "Â»,": 5670,
      "utter": 5671,
      "usch": 5672,
      "ko": 5673,
      "Ġchr": 5674,
      "iveau": 5675,
      "Ġsugg": 5676,
      "fass": 5677,
      "Ġencontr": 5678,
      "Ġheute": 5679,
      "Ġmessage": 5680,
      "ĠSchool": 5681,
      "venir": 5682,
      "ĠAC": 5683,
      "Ġprivate": 5684,
      "ĠBest": 5685,
      "''": 5686,
      "Ġseman": 5687,
      "Ġprotection": 5688,
      "Ġdeve": 5689,
      "MS": 5690,
      "],": 5691,
      "Ġgrandes": 5692,
      "Ġeveryone": 5693,
      "Ġ1998": 5694,
      "Ġdete": 5695,
      "dings": 5696,
      "Ġgames": 5697,
      "ĠEle": 5698,
      "Ġsoon": 5699,
      "Ġeffic": 5700,
      "Ġvilla": 5701,
      "Ġbooks": 5702,
      "ĠSil": 5703,
      "oti": 5704,
      "ĠTw": 5705,
      "ĠSepte": 5706,
      "ĠNove": 5707,
      "Ġdeli": 5708,
      "Ġdan": 5709,
      "Ġbud": 5710,
      "enso": 5711,
      "Ġwriting": 5712,
      "inst": 5713,
      "seite": 5714,
      "Ġobserv": 5715,
      "tem": 5716,
      "Ġapply": 5717,
      "tÃł": 5718,
      "Ġved": 5719,
      "Ġcentral": 5720,
      "ĠEspaÃ±a": 5721,
      "ĠVous": 5722,
      "Ġagre": 5723,
      "unch": 5724,
      "Ġforme": 5725,
      "ittÃł": 5726,
      "ĠKir": 5727,
      "Ġquesti": 5728,
      "verse": 5729,
      "Ġvin": 5730,
      "ĠLib": 5731,
      "Ġfla": 5732,
      "Ġexact": 5733,
      "Ġbuilding": 5734,
      "mpt": 5735,
      "rieb": 5736,
      "Ġzug": 5737,
      "ĠPero": 5738,
      "ĠVe": 5739,
      "Ġcontain": 5740,
      "uda": 5741,
      "Ġstatis": 5742,
      "Ġservicios": 5743,
      "ĠPlease": 5744,
      "Ġign": 5745,
      "azz": 5746,
      "ĠsÃŃ": 5747,
      "bro": 5748,
      "Ġattention": 5749,
      "Ġideas": 5750,
      "ritt": 5751,
      "uman": 5752,
      "xy": 5753,
      "Ġaf": 5754,
      "oder": 5755,
      "Ġnostro": 5756,
      "Ġmio": 5757,
      "rix": 5758,
      "Ã¤ter": 5759,
      "frica": 5760,
      "ederal": 5761,
      "iff": 5762,
      "will": 5763,
      "Ġagen": 5764,
      "Ġverwend": 5765,
      "tively": 5766,
      "ville": 5767,
      "Ġzona": 5768,
      "tivas": 5769,
      "nahmen": 5770,
      "ĠTur": 5771,
      "Sie": 5772,
      "Ġclean": 5773,
      "ielt": 5774,
      "idi": 5775,
      "pruch": 5776,
      "Ã¨g": 5777,
      "anden": 5778,
      "Ġword": 5779,
      "Pr": 5780,
      "Ġrac": 5781,
      "ĠTechn": 5782,
      "Ġpron": 5783,
      "ĠJanu": 5784,
      "werk": 5785,
      "ĠMann": 5786,
      "zer": 5787,
      "Ã©ro": 5788,
      "ĠItalia": 5789,
      "ĠCong": 5790,
      "ips": 5791,
      "schaf": 5792,
      "Ġvent": 5793,
      "amenti": 5794,
      "ĠPort": 5795,
      "jekt": 5796,
      "iza": 5797,
      "Ġpositive": 5798,
      "Ġblood": 5799,
      "izia": 5800,
      "69": 5801,
      "len": 5802,
      "mselves": 5803,
      "ĠCu": 5804,
      "Ġappropri": 5805,
      "DO": 5806,
      "Ġmicro": 5807,
      "CI": 5808,
      "odo": 5809,
      "Ġincludes": 5810,
      "ĠGre": 5811,
      "serv": 5812,
      "ĠQue": 5813,
      "Ġgroups": 5814,
      "ĠTro": 5815,
      "iddle": 5816,
      "ienti": 5817,
      "ĠFar": 5818,
      "Ġproduits": 5819,
      "Ġdistribu": 5820,
      "ĠVir": 5821,
      "Ġdin": 5822,
      "Ġdiagn": 5823,
      "Ġsecurity": 5824,
      "Ġperfe": 5825,
      "43": 5826,
      "Ġevents": 5827,
      "Ġchem": 5828,
      "When": 5829,
      "ĠRÃ¼ck": 5830,
      "Ġdat": 5831,
      "ĠCour": 5832,
      "Las": 5833,
      "Ġsuite": 5834,
      "Ġtakes": 5835,
      "care": 5836,
      "Ġretro": 5837,
      "ught": 5838,
      "dy": 5839,
      "ĠSeptember": 5840,
      "Ġcompanies": 5841,
      "tamment": 5842,
      "Ġanyone": 5843,
      "Ġconcept": 5844,
      "Ġalgunos": 5845,
      "ĠEnde": 5846,
      "Ġintens": 5847,
      "Ġradio": 5848,
      "feld": 5849,
      "Ġ38": 5850,
      "Ġasp": 5851,
      "ĠNatur": 5852,
      "At": 5853,
      "ĠNord": 5854,
      "Ġrecib": 5855,
      "Ġoffers": 5856,
      "new": 5857,
      "Ġquali": 5858,
      "gÃºn": 5859,
      "kung": 5860,
      "59": 5861,
      "Ġtengo": 5862,
      "ĠtÃ©lÃ©": 5863,
      "tiss": 5864,
      "uridad": 5865,
      "aler": 5866,
      "Ġpsych": 5867,
      "DA": 5868,
      "ĠIndi": 5869,
      "Ġthemselves": 5870,
      "rote": 5871,
      "weg": 5872,
      "Ġ48": 5873,
      "dom": 5874,
      "Ġade": 5875,
      "ĠKunden": 5876,
      "ĠMat": 5877,
      "ories": 5878,
      "ĠHil": 5879,
      "Ġbeiden": 5880,
      "Ġadditional": 5881,
      "Ġvig": 5882,
      "agra": 5883,
      "Ġreac": 5884,
      "Ġstress": 5885,
      "ĠChina": 5886,
      "isen": 5887,
      "Ġlanguage": 5888,
      "Ġadded": 5889,
      "vous": 5890,
      "Ġposi": 5891,
      "ecu": 5892,
      "Ã´le": 5893,
      "ulture": 5894,
      "Ġcomer": 5895,
      "ĠNous": 5896,
      "ĠAct": 5897,
      "quement": 5898,
      "Ġwritten": 5899,
      "Ġdigital": 5900,
      "Ġgilt": 5901,
      "Ġresponse": 5902,
      "Ġengine": 5903,
      "ĠRel": 5904,
      "Ġimages": 5905,
      "enschutz": 5906,
      "embre": 5907,
      "Ġorient": 5908,
      "Ġpretty": 5909,
      "Ġconsidered": 5910,
      "Ġaltre": 5911,
      "Ġinstal": 5912,
      "ĠTex": 5913,
      "TS": 5914,
      "ulations": 5915,
      "ĠTit": 5916,
      "Ġguerra": 5917,
      "ĠAustr": 5918,
      "Ġmatch": 5919,
      "esis": 5920,
      "42": 5921,
      "Ġ1990": 5922,
      "ĠAber": 5923,
      "ouvez": 5924,
      "Ġlevels": 5925,
      "graf": 5926,
      "Ġtant": 5927,
      "Ġofficial": 5928,
      "Ġpossibile": 5929,
      "tail": 5930,
      "Ġgef": 5931,
      "Ġtot": 5932,
      "ĠEins": 5933,
      "cios": 5934,
      "lare": 5935,
      "ĠnÃ©cess": 5936,
      "Ġtema": 5937,
      "Ġdort": 5938,
      "Ġembargo": 5939,
      "esi": 5940,
      "ĠBlack": 5941,
      "Ġhol": 5942,
      "Ġsavoir": 5943,
      "Ġmeasure": 5944,
      "ĠRos": 5945,
      "ĠPriv": 5946,
      "Ġintegr": 5947,
      "Ġvalues": 5948,
      "Ġmix": 5949,
      "antage": 5950,
      "anche": 5951,
      "Ġnumer": 5952,
      "Ġaveva": 5953,
      "âĢ¦]": 5954,
      "Ġbecom": 5955,
      "ĠFeb": 5956,
      "ĠWilliam": 5957,
      "Ġbrowser": 5958,
      "legen": 5959,
      "issenschaft": 5960,
      "Ġanci": 5961,
      "Ġprofessional": 5962,
      "abor": 5963,
      "ĠArch": 5964,
      "ĠTre": 5965,
      "ĠEuropa": 5966,
      "ĠMÃ©": 5967,
      "usto": 5968,
      "ĠannÃ©es": 5969,
      "nehmer": 5970,
      "Ġaj": 5971,
      "iac": 5972,
      "Ġstaff": 5973,
      "arias": 5974,
      "ĠgÃ©nÃ©ral": 5975,
      "iblio": 5976,
      "Ġtouch": 5977,
      "cond": 5978,
      "Ġries": 5979,
      "Ġisn": 5980,
      "ĠEstados": 5981,
      "tellung": 5982,
      "iving": 5983,
      "ĠKomm": 5984,
      "iese": 5985,
      "Ġsitio": 5986,
      "legt": 5987,
      "Ġvier": 5988,
      "Ġcouple": 5989,
      "enez": 5990,
      "Ġpaper": 5991,
      "ĠThen": 5992,
      "Ã¤nger": 5993,
      "ĠIhrer": 5994,
      "Ġmm": 5995,
      "kten": 5996,
      "anning": 5997,
      "orf": 5998,
      "Ġaccomp": 5999,
      "ĠCer": 6000,
      "iana": 6001,
      "Ġsang": 6002,
      "Ġstock": 6003,
      "iforn": 6004,
      "Ġstore": 6005,
      "Ġmentre": 6006,
      "auss": 6007,
      "Sp": 6008,
      "cr": 6009,
      "estival": 6010,
      "isa": 6011,
      "ĠNow": 6012,
      "Ġfail": 6013,
      "Ġletter": 6014,
      "Ġigual": 6015,
      "Ġlocation": 6016,
      "ĠMas": 6017,
      "Ġdese": 6018,
      "Ġpractice": 6019,
      "ĠPR": 6020,
      "Ġcher": 6021,
      "unts": 6022,
      "prim": 6023,
      "Ġbede": 6024,
      "cimiento": 6025,
      "41": 6026,
      "Ġgene": 6027,
      "antwort": 6028,
      "ĠreprÃ©s": 6029,
      "Â®": 6030,
      "Ġcells": 6031,
      "Ġgrowth": 6032,
      "Ġpouvez": 6033,
      "gangen": 6034,
      "Ġparam": 6035,
      "Ġassociated": 6036,
      "Ġattemp": 6037,
      "Ġmainten": 6038,
      "key": 6039,
      "ring": 6040,
      "IB": 6041,
      "Ġmunicip": 6042,
      "77": 6043,
      "Ġdonne": 6044,
      "Ġfire": 6045,
      "Ġ1997": 6046,
      "58": 6047,
      "Ġtraining": 6048,
      "Ġlearning": 6049,
      "Ġdol": 6050,
      "Ġposible": 6051,
      "Ġtravel": 6052,
      "iga": 6053,
      "Ġprend": 6054,
      "Ġtun": 6055,
      "Ġderni": 6056,
      "Ġcreated": 6057,
      "Ġterra": 6058,
      "Ġveces": 6059,
      "ĠĊĠĊ": 6060,
      "ĠUne": 6061,
      "CA": 6062,
      "rant": 6063,
      "Ġstudies": 6064,
      "tiful": 6065,
      "Tra": 6066,
      "ĠNet": 6067,
      "akt": 6068,
      "duction": 6069,
      "Ġdisease": 6070,
      "haps": 6071,
      "SE": 6072,
      "Ġmondi": 6073,
      "ĠlÃ©g": 6074,
      "tile": 6075,
      "ĠWasser": 6076,
      "Ġdifferen": 6077,
      "onces": 6078,
      "ĠPos": 6079,
      "ĠIr": 6080,
      "Ġgracias": 6081,
      "Ġweitere": 6082,
      "Ġmano": 6083,
      "Ġrapid": 6084,
      "Ġfres": 6085,
      "Ġprobl": 6086,
      "iglia": 6087,
      "Ġinstead": 6088,
      "ĠGrupp": 6089,
      "Ġdetails": 6090,
      "nd": 6091,
      "rently": 6092,
      "Ġanterior": 6093,
      "iting": 6094,
      "Ġformation": 6095,
      "arÃŃa": 6096,
      "ĠFern": 6097,
      "Ġdirit": 6098,
      "agli": 6099,
      "Ġforward": 6100,
      "Ġhacia": 6101,
      "Ġcelui": 6102,
      "orto": 6103,
      "ĠBank": 6104,
      "Ġbehind": 6105,
      "tended": 6106,
      "Ġworden": 6107,
      "Ġrelative": 6108,
      "Ġmac": 6109,
      "Ġeffective": 6110,
      "ety": 6111,
      "ichten": 6112,
      "hold": 6113,
      "Ġtrib": 6114,
      "Ġenjoy": 6115,
      "eg": 6116,
      "Ġeducation": 6117,
      "tour": 6118,
      "ĠAND": 6119,
      "ĠZu": 6120,
      "Ġconsegu": 6121,
      "Ġplas": 6122,
      "Ġejemplo": 6123,
      "Ġheld": 6124,
      "ĠEnglish": 6125,
      "Ġnut": 6126,
      "Ġvisual": 6127,
      "Ġsold": 6128,
      "Ġartist": 6129,
      "ydro": 6130,
      "Ġnuestros": 6131,
      "Ġresponsabil": 6132,
      "lication": 6133,
      "aÃ±": 6134,
      "esa": 6135,
      "taciÃ³n": 6136,
      "Ġevidence": 6137,
      "Ġcredit": 6138,
      "ĠRahmen": 6139,
      "ĠPara": 6140,
      "ĠnÃºmer": 6141,
      "ktr": 6142,
      "Ġoffice": 6143,
      "yo": 6144,
      "ftig": 6145,
      "ering": 6146,
      "Ġopera": 6147,
      "bero": 6148,
      "uper": 6149,
      "====": 6150,
      "Ġusers": 6151,
      "ĠsarÃł": 6152,
      "pti": 6153,
      "Ġstep": 6154,
      "zas": 6155,
      "Ġkonnte": 6156,
      "orie": 6157,
      "Ur": 6158,
      "Ġdarauf": 6159,
      "Ġpros": 6160,
      "bed": 6161,
      "Ġagli": 6162,
      "ĠWas": 6163,
      "ĠdÃ©p": 6164,
      "Ġpurchase": 6165,
      "ming": 6166,
      "hood": 6167,
      "oses": 6168,
      "Ġseinem": 6169,
      "cole": 6170,
      "Ġcoming": 6171,
      "tellig": 6172,
      "based": 6173,
      "Ġbott": 6174,
      "Ġagree": 6175,
      "ĠCre": 6176,
      "Ġfamilia": 6177,
      "onne": 6178,
      "Ġquar": 6179,
      "ĠAls": 6180,
      "Ġcountries": 6181,
      "Ġfantas": 6182,
      "rÃ¤n": 6183,
      "tiene": 6184,
      "ĠCla": 6185,
      "ĠSpr": 6186,
      "fÃ¼hrt": 6187,
      "cting": 6188,
      "Ġsale": 6189,
      "Ġeigenen": 6190,
      "yal": 6191,
      "Ġhistoria": 6192,
      "ĠFunktion": 6193,
      "teilung": 6194,
      "bla": 6195,
      "GB": 6196,
      "anner": 6197,
      "Ġsaw": 6198,
      "ify": 6199,
      "âĢ¦.": 6200,
      "amples": 6201,
      "ĠNovember": 6202,
      "unft": 6203,
      "Ġlieu": 6204,
      "Ġbio": 6205,
      "know": 6206,
      "Ġhoy": 6207,
      "ĠwÃ¤hrend": 6208,
      "rome": 6209,
      "PA": 6210,
      "Ġsort": 6211,
      "Ġeffet": 6212,
      "ĠFamil": 6213,
      "Col": 6214,
      "Ġinsp": 6215,
      "Ġchance": 6216,
      "Ġ500": 6217,
      "Ġchamp": 6218,
      "Ġmisma": 6219,
      "ĠademÃ¡s": 6220,
      "tish": 6221,
      "Ġ32": 6222,
      "alter": 6223,
      "Ġincluded": 6224,
      "Ġdog": 6225,
      "hÃ¤ng": 6226,
      "Ġtard": 6227,
      "Ġfinancial": 6228,
      "Ãĵ": 6229,
      "Ġtrabaj": 6230,
      "Ġconcer": 6231,
      "iday": 6232,
      "Ġpattern": 6233,
      "ieme": 6234,
      "Ġrapport": 6235,
      "Ġdesigned": 6236,
      "ministration": 6237,
      "ĠCD": 6238,
      "Ġmise": 6239,
      "Ġmember": 6240,
      "void": 6241,
      "Ġnuovo": 6242,
      "Ġtel": 6243,
      "eto": 6244,
      "alyse": 6245,
      "ologia": 6246,
      "Ġï": 6247,
      "Ġusted": 6248,
      "Ġitalian": 6249,
      "ĠHÃ¶": 6250,
      "Ġactivity": 6251,
      "Mit": 6252,
      "licht": 6253,
      "Ġdej": 6254,
      "cipl": 6255,
      "schein": 6256,
      "Ġstren": 6257,
      "Ġspeak": 6258,
      "ĠAf": 6259,
      "Ġparts": 6260,
      "Ġmul": 6261,
      "Ġsound": 6262,
      "ĠAM": 6263,
      "Ġmur": 6264,
      "fois": 6265,
      "Ġ36": 6266,
      "Ġander": 6267,
      "Ã¶rper": 6268,
      "Ġio": 6269,
      "Ġbecame": 6270,
      "clud": 6271,
      "ĠMic": 6272,
      "ĠTO": 6273,
      "Ġesemp": 6274,
      "Ġformer": 6275,
      "Ã¡nd": 6276,
      "Ġrunning": 6277,
      "Ġconclus": 6278,
      "wood": 6279,
      "Ġcollection": 6280,
      "cch": 6281,
      "Ġmuer": 6282,
      "orre": 6283,
      "onia": 6284,
      "ST": 6285,
      "Ġfeature": 6286,
      "uni": 6287,
      "ĠDEL": 6288,
      "Ġimpact": 6289,
      "Ġoltre": 6290,
      "Ġstop": 6291,
      "Ġtrack": 6292,
      "ila": 6293,
      "Ġbur": 6294,
      "ĠcittÃł": 6295,
      "vier": 6296,
      "ĠRec": 6297,
      "ĠLou": 6298,
      "Ġproductos": 6299,
      "Ġvalor": 6300,
      "Ġdecision": 6301,
      "Ġvista": 6302,
      "Ã§on": 6303,
      "Ġpersone": 6304,
      "Ġweeks": 6305,
      "Ġequipo": 6306,
      "Ġmultiple": 6307,
      "Ġmediante": 6308,
      "Ġremember": 6309,
      "Ã¤nde": 6310,
      "pose": 6311,
      "Ġdirig": 6312,
      "cono": 6313,
      "Ġrice": 6314,
      "ĠAlex": 6315,
      "conÃ³m": 6316,
      "Ġ1996": 6317,
      "Ġitem": 6318,
      "rio": 6319,
      "Ġexam": 6320,
      "ĠCommission": 6321,
      "imenti": 6322,
      "Ġfirm": 6323,
      "leist": 6324,
      "ĠJournal": 6325,
      "like": 6326,
      "ĠReal": 6327,
      "Ġfueron": 6328,
      "Ġimmediate": 6329,
      "Ġactivities": 6330,
      "Ġligne": 6331,
      "Ġmuchas": 6332,
      "ĠCOM": 6333,
      "Ġwirk": 6334,
      "UM": 6335,
      "Ã¼h": 6336,
      "Ã©nÃ©": 6337,
      "ĠnatÃ¼r": 6338,
      "hui": 6339,
      "Ġhear": 6340,
      "cific": 6341,
      "fficient": 6342,
      "Ġrecent": 6343,
      "formations": 6344,
      "Ġbil": 6345,
      "Ġphotos": 6346,
      "ĠMÃ¶glichkeit": 6347,
      "cause": 6348,
      "achen": 6349,
      "Ġlimited": 6350,
      "98": 6351,
      "ĠEuro": 6352,
      "annten": 6353,
      "aco": 6354,
      "Ġappe": 6355,
      "Ġporta": 6356,
      "ĠOs": 6357,
      "Ġcambi": 6358,
      "Ġcivil": 6359,
      "Go": 6360,
      "Ġphone": 6361,
      "ader": 6362,
      "ĠRoma": 6363,
      "Ġleave": 6364,
      "ads": 6365,
      "zeichnet": 6366,
      "ĠpÃ¡g": 6367,
      "Ġ37": 6368,
      "ĠCenter": 6369,
      "ĠAir": 6370,
      "Ã¤che": 6371,
      "Ġrien": 6372,
      "ctures": 6373,
      "tar": 6374,
      "Ġgiorni": 6375,
      "Ġfron": 6376,
      "ĠwÃ¼rde": 6377,
      "Ġtus": 6378,
      "Ġheav": 6379,
      "more": 6380,
      "Ġpolitique": 6381,
      "Ġchallen": 6382,
      "Ġchoose": 6383,
      "Ġmarketing": 6384,
      "ĠDans": 6385,
      "ĠOk": 6386,
      "aby": 6387,
      "Ġpouvoir": 6388,
      "ĠXV": 6389,
      "ĠLeben": 6390,
      "Categoria": 6391,
      "Ġassum": 6392,
      "Ġinstr": 6393,
      "57": 6394,
      "ĠMitgl": 6395,
      "gment": 6396,
      "anci": 6397,
      "ĠNews": 6398,
      "Ġdirection": 6399,
      "ĠIP": 6400,
      "Ġdeber": 6401,
      "Ġcontribu": 6402,
      "Ġnotamment": 6403,
      "edia": 6404,
      "exp": 6405,
      "Ġcoment": 6406,
      "ĠZiel": 6407,
      "Ġinformations": 6408,
      "Ġmanufact": 6409,
      "Ġenfants": 6410,
      "Ġbenefic": 6411,
      "Ġwichtig": 6412,
      "Refer": 6413,
      "untos": 6414,
      "Ġfabric": 6415,
      "ĠCat": 6416,
      "Ġeurope": 6417,
      "Ġrad": 6418,
      "LO": 6419,
      "cionales": 6420,
      "App": 6421,
      "ĠWie": 6422,
      "ãĢ": 6423,
      "ĠSicher": 6424,
      "Ġproduce": 6425,
      "Ġpressure": 6426,
      "Ġoft": 6427,
      "ierre": 6428,
      "position": 6429,
      "Ġalcuni": 6430,
      "Ġartis": 6431,
      "rado": 6432,
      "Ġville": 6433,
      "Ã©v": 6434,
      "genommen": 6435,
      "ĠserÃ¡": 6436,
      "Ġnouveau": 6437,
      "My": 6438,
      "Ġclin": 6439,
      "Ġstates": 6440,
      "enbe": 6441,
      "Ġmientras": 6442,
      "icamente": 6443,
      "stÃ¼tz": 6444,
      "cement": 6445,
      "ĠBil": 6446,
      "ĠMittel": 6447,
      "isi": 6448,
      "Ġdeep": 6449,
      "Ġtuo": 6450,
      "ierra": 6451,
      "Ġproceso": 6452,
      "ashington": 6453,
      "ierto": 6454,
      "Ã©rieur": 6455,
      "rary": 6456,
      "ĠespaÃ±": 6457,
      "ĠBay": 6458,
      "Ġore": 6459,
      "Ġconform": 6460,
      "Ġlinks": 6461,
      "wand": 6462,
      "angen": 6463,
      ".).": 6464,
      "alten": 6465,
      "Ġsui": 6466,
      "Ġaltro": 6467,
      "ĠClub": 6468,
      "aving": 6469,
      "ground": 6470,
      "Ġaura": 6471,
      "Ġorden": 6472,
      "Ġstim": 6473,
      "roid": 6474,
      "ĠCam": 6475,
      "Ġdouble": 6476,
      "Ġrele": 6477,
      "Ġdesarrollo": 6478,
      "ieg": 6479,
      "Ġdemande": 6480,
      "Ġground": 6481,
      "irth": 6482,
      "Ġstatt": 6483,
      "Âº": 6484,
      "Ġmoder": 6485,
      "Ġconstruction": 6486,
      "Ġreach": 6487,
      "tagon": 6488,
      "Ġelectr": 6489,
      "Ġparties": 6490,
      "cribe": 6491,
      "Ġguid": 6492,
      "miss": 6493,
      "Ġclick": 6494,
      "Ġsequ": 6495,
      "Ġ[âĢ¦]": 6496,
      "Ġdri": 6497,
      "uz": 6498,
      "iore": 6499,
      "Ġlost": 6500,
      "ĠTele": 6501,
      "Ġradi": 6502,
      "Ġstay": 6503,
      "Ġcross": 6504,
      "Ġprojet": 6505,
      "stein": 6506,
      "Ġgradu": 6507,
      "Ġhappy": 6508,
      "alo": 6509,
      "ĠKing": 6510,
      "Ġdescribed": 6511,
      "Ã¼d": 6512,
      "Ġservicio": 6513,
      "ĠFrom": 6514,
      "Ġremp": 6515,
      "izzazione": 6516,
      "ĠHouse": 6517,
      "Ġsuff": 6518,
      "late": 6519,
      "lungs": 6520,
      "ifornia": 6521,
      "Ġinfe": 6522,
      "Ġmode": 6523,
      "body": 6524,
      "Ġcorrect": 6525,
      "Ġinser": 6526,
      "Mar": 6527,
      "Ġconsul": 6528,
      "Ġestaba": 6529,
      "Ġemploy": 6530,
      "Ġclients": 6531,
      "Ġability": 6532,
      "Ġmedical": 6533,
      "Ġsolic": 6534,
      "eins": 6535,
      "ĠWork": 6536,
      "Ġgiorno": 6537,
      "wing": 6538,
      "SA": 6539,
      "Ġgraph": 6540,
      "ĠKle": 6541,
      "Ġvisto": 6542,
      "geh": 6543,
      "BN": 6544,
      "bene": 6545,
      "Ġdecre": 6546,
      "Ġmagn": 6547,
      "Ġescrit": 6548,
      "Ġoptions": 6549,
      "ĠOl": 6550,
      "Ġnichts": 6551,
      "rs": 6552,
      "vilupp": 6553,
      "ualmente": 6554,
      "Ġaim": 6555,
      "ĠJack": 6556,
      "Ġwrong": 6557,
      "Ġpendant": 6558,
      "Ġwrite": 6559,
      "tez": 6560,
      "ref": 6561,
      "year": 6562,
      "ĠPER": 6563,
      "ĠPRO": 6564,
      "utet": 6565,
      "ĠIV": 6566,
      "Ġkommen": 6567,
      "ĠAssoci": 6568,
      "Ġemploye": 6569,
      "ĠspÃ©cial": 6570,
      "Ġcontroll": 6571,
      "anze": 6572,
      "Ġbag": 6573,
      "Ġtechniques": 6574,
      "ilib": 6575,
      "Ġdirectly": 6576,
      "nea": 6577,
      "Ġphysical": 6578,
      "tikel": 6579,
      "ĠPC": 6580,
      "Ġchose": 6581,
      "Ġlibre": 6582,
      "besondere": 6583,
      "Ġceux": 6584,
      "Ġvolume": 6585,
      "ceed": 6586,
      "test": 6587,
      "Ġyourself": 6588,
      "Ġpreced": 6589,
      "ĠOber": 6590,
      "lossen": 6591,
      "ĠAlso": 6592,
      "Ã¤uf": 6593,
      "ports": 6594,
      "Ġeinzel": 6595,
      "ellent": 6596,
      "Ġinvolved": 6597,
      "Ġoption": 6598,
      "verso": 6599,
      "Ġplat": 6600,
      "Ġhotel": 6601,
      "Ġdeliver": 6602,
      "Ġfru": 6603,
      "Ġdifference": 6604,
      "inaciÃ³n": 6605,
      "Ġproc": 6606,
      "Ġec": 6607,
      "ĠNel": 6608,
      "Ġencour": 6609,
      "Ġsuperior": 6610,
      "Ġpatient": 6611,
      "vece": 6612,
      "ĠAngel": 6613,
      "Ġdrug": 6614,
      "ocer": 6615,
      "Ġones": 6616,
      "room": 6617,
      "ĠExper": 6618,
      "Ġstri": 6619,
      "Ġsend": 6620,
      "Ġapar": 6621,
      "lice": 6622,
      "reci": 6623,
      "ĠSchul": 6624,
      "olÃ³g": 6625,
      "glichen": 6626,
      "ennen": 6627,
      "pet": 6628,
      "Ġsignifica": 6629,
      "IF": 6630,
      "asso": 6631,
      "ĠInc": 6632,
      "Ġcondic": 6633,
      "Ġsos": 6634,
      "enen": 6635,
      "Ġpersonne": 6636,
      "gegen": 6637,
      "colo": 6638,
      "ĠMuse": 6639,
      "Ã¤ss": 6640,
      "ĠÃ©qu": 6641,
      "Ġclient": 6642,
      "Ġerforder": 6643,
      "ctors": 6644,
      "Ġdownload": 6645,
      "Ġpil": 6646,
      "Ġwish": 6647,
      "Ġpredic": 6648,
      "Ã¤ren": 6649,
      "asons": 6650,
      "Ġserve": 6651,
      "Ġimplement": 6652,
      "Ġpresidente": 6653,
      "arily": 6654,
      "Ġakt": 6655,
      "ĠEntscheid": 6656,
      "Ġnovel": 6657,
      "ĠFrage": 6658,
      "Ġpadre": 6659,
      "ĠJust": 6660,
      "Ġsle": 6661,
      "ĠÃ©v": 6662,
      "span": 6663,
      "ĠsegÃºn": 6664,
      "Ġwoman": 6665,
      "orno": 6666,
      "Ġfigure": 6667,
      "Ma": 6668,
      "Ġtarget": 6669,
      "Ġmeine": 6670,
      "Ġov": 6671,
      "Ġensure": 6672,
      "Ġinside": 6673,
      "Ġ1995": 6674,
      "lab": 6675,
      "ctr": 6676,
      "ctively": 6677,
      "ienst": 6678,
      "Ġcenter": 6679,
      "Ġerg": 6680,
      "itement": 6681,
      "oltre": 6682,
      "Ġhyp": 6683,
      "ĠAngeb": 6684,
      "Ġlegis": 6685,
      "Ġbajo": 6686,
      "Ġhimself": 6687,
      "reichen": 6688,
      "ĠJos": 6689,
      "my": 6690,
      "heiten": 6691,
      "Ġaccur": 6692,
      "ĠdÃ©f": 6693,
      "Ġformul": 6694,
      "Ġregister": 6695,
      "Ġsolid": 6696,
      "Ġagua": 6697,
      "ĠRom": 6698,
      "Ġrappres": 6699,
      "Ġcommen": 6700,
      "Ġfuncion": 6701,
      "ĠsÃ©cur": 6702,
      "ĠĠĠ": 6703,
      "ĠDam": 6704,
      "ĠPap": 6705,
      "cious": 6706,
      "orial": 6707,
      "Ġracc": 6708,
      "uard": 6709,
      "osis": 6710,
      "brauch": 6711,
      "Ġgrupo": 6712,
      "order": 6713,
      "Ġcausa": 6714,
      "enses": 6715,
      "Ġworth": 6716,
      "Ġmont": 6717,
      "mitted": 6718,
      "Ġgroupe": 6719,
      "Ġnucle": 6720,
      "ĠIsrael": 6721,
      "Ġling": 6722,
      "reh": 6723,
      "Ġpotre": 6724,
      "Ġinnov": 6725,
      "estern": 6726,
      "Ġtheory": 6727,
      "Ġdistribution": 6728,
      "Ġverwendet": 6729,
      "54": 6730,
      "Ġcustomers": 6731,
      "Ġsaf": 6732,
      "Ġ39": 6733,
      "Ġsaber": 6734,
      "utzen": 6735,
      "Ġcambio": 6736,
      "Ġmia": 6737,
      "halte": 6738,
      "unst": 6739,
      "mbol": 6740,
      "âĪĴ": 6741,
      "unda": 6742,
      "Ġvehic": 6743,
      "voll": 6744,
      "ĠErgeb": 6745,
      "Ġtutta": 6746,
      "¿½": 6747,
      "Ġvas": 6748,
      "ĠInf": 6749,
      "verst": 6750,
      "acqu": 6751,
      "56": 6752,
      "Ġexperiment": 6753,
      "Ġepis": 6754,
      "ĠBed": 6755,
      "Ġsicher": 6756,
      "Ġaverage": 6757,
      "Ġchoice": 6758,
      "Ġswe": 6759,
      "Ġindi": 6760,
      "opf": 6761,
      "ouvern": 6762,
      "Ġdeveloped": 6763,
      "erva": 6764,
      "Ġcoin": 6765,
      "stÃ¤nd": 6766,
      "Ġsemb": 6767,
      "Ġbeautiful": 6768,
      "ĠMeth": 6769,
      "ĠHel": 6770,
      "Ġcoll": 6771,
      "Ġpolic": 6772,
      "ĠBa": 6773,
      "Ġtrad": 6774,
      "ienne": 6775,
      "cup": 6776,
      "Ġconj": 6777,
      "ĠJapan": 6778,
      "Ġdiferentes": 6779,
      "Ġcaratter": 6780,
      "Ġmyself": 6781,
      "Ã©ment": 6782,
      "ĠWhile": 6783,
      "osed": 6784,
      "ĠSanta": 6785,
      "ĠJames": 6786,
      "Ġtown": 6787,
      "almente": 6788,
      "Ġcollabor": 6789,
      "Ġcampa": 6790,
      "ĠCanada": 6791,
      "Ġpasse": 6792,
      "Ġultim": 6793,
      "ĠRobert": 6794,
      "Ġclic": 6795,
      "ĠAnn": 6796,
      "BA": 6797,
      "mÃ¶": 6798,
      "Ã³r": 6799,
      "Ġselon": 6800,
      "Non": 6801,
      "ĠAp": 6802,
      "Ġservizi": 6803,
      "Ġlives": 6804,
      "ielen": 6805,
      "Ġaliment": 6806,
      "ĠOper": 6807,
      "Ġscience": 6808,
      "Ġgeben": 6809,
      "ĠsiÃ¨": 6810,
      "orig": 6811,
      "Ġuses": 6812,
      "ĠDist": 6813,
      "Ġeu": 6814,
      "Ġgob": 6815,
      "Ġnumero": 6816,
      "Ġsoy": 6817,
      "ĠHigh": 6818,
      "Ġnove": 6819,
      "nier": 6820,
      "?\"": 6821,
      "Ġeleg": 6822,
      "ĠhÃ¤t": 6823,
      "Ġjamais": 6824,
      "ĠSom": 6825,
      "vertis": 6826,
      "Ce": 6827,
      "wind": 6828,
      "Ġstreng": 6829,
      "ĠMichael": 6830,
      "iar": 6831,
      "ĠDesign": 6832,
      "Ġsole": 6833,
      "Ġeconomic": 6834,
      "ĠAR": 6835,
      "ĠCH": 6836,
      "Tr": 6837,
      "Ġtab": 6838,
      "ĠAnton": 6839,
      "Ġsugges": 6840,
      "Ġcourt": 6841,
      "ultur": 6842,
      "mage": 6843,
      "orning": 6844,
      "izing": 6845,
      "ppo": 6846,
      "Ġforn": 6847,
      "ny": 6848,
      "Ġprendre": 6849,
      "Ġello": 6850,
      "ĠSeiten": 6851,
      "hes": 6852,
      "beding": 6853,
      "onic": 6854,
      "Ġrob": 6855,
      "gaben": 6856,
      "Ġliqu": 6857,
      "Ġdynam": 6858,
      "âĢŀ": 6859,
      "schluss": 6860,
      "Ġdoll": 6861,
      "Ġsod": 6862,
      "Ġreported": 6863,
      "Ġnouvelle": 6864,
      "Ġservizio": 6865,
      "bern": 6866,
      "Ġsometimes": 6867,
      "Ġfan": 6868,
      "Ġconsig": 6869,
      "Ġpages": 6870,
      "Ġense": 6871,
      "Ġnoi": 6872,
      "ĠqualitÃ©": 6873,
      "Ġhoch": 6874,
      "ummer": 6875,
      "ĠCalifornia": 6876,
      "aves": 6877,
      "ĠSto": 6878,
      "Ġ1994": 6879,
      "iro": 6880,
      "ĠWashington": 6881,
      "Ġfair": 6882,
      "log": 6883,
      "Ġress": 6884,
      "ĠMinister": 6885,
      "Ġvuel": 6886,
      "OT": 6887,
      "Ġfundament": 6888,
      "Ġmeno": 6889,
      "Ġod": 6890,
      "schlieÃŁ": 6891,
      "vero": 6892,
      "isir": 6893,
      "usst": 6894,
      "Ġeasily": 6895,
      "volu": 6896,
      "Ġbegan": 6897,
      "Ġwahr": 6898,
      "Ġsigui": 6899,
      "Ġsector": 6900,
      "Ġsehen": 6901,
      "unge": 6902,
      "Ġcampo": 6903,
      "Ġnice": 6904,
      "stellen": 6905,
      "utung": 6906,
      "zip": 6907,
      "lu": 6908,
      "gers": 6909,
      "Ġboard": 6910,
      "ĠPAR": 6911,
      "Ġwin": 6912,
      "Ã»t": 6913,
      "arden": 6914,
      "izzo": 6915,
      "alitÃł": 6916,
      "Ġoggi": 6917,
      "jets": 6918,
      "phe": 6919,
      "tices": 6920,
      "Ġdaher": 6921,
      "Ġdirec": 6922,
      "umin": 6923,
      "Ġpalab": 6924,
      "Ġnosotros": 6925,
      "Ġfinanci": 6926,
      "Ġinflu": 6927,
      "Ġdirector": 6928,
      "ĠKenn": 6929,
      "yond": 6930,
      "ĠBern": 6931,
      "Ġcommunication": 6932,
      "Ġverl": 6933,
      "Ġphoto": 6934,
      "Ġraz": 6935,
      "ĠintÃ©r": 6936,
      "Et": 6937,
      "Ġweight": 6938,
      "Ġavere": 6939,
      "Ġprodotti": 6940,
      "Ġconfigur": 6941,
      "andon": 6942,
      "Ġplayers": 6943,
      "hunder": 6944,
      "gie": 6945,
      "ĠCa": 6946,
      "estre": 6947,
      "rig": 6948,
      "wie": 6949,
      "UC": 6950,
      "llt": 6951,
      "iano": 6952,
      "Ġsvilupp": 6953,
      "Ġaufge": 6954,
      "ĠIde": 6955,
      "BC": 6956,
      "Ġmaterials": 6957,
      "Ġteil": 6958,
      "53": 6959,
      "Ġforum": 6960,
      "ĠnÃºmero": 6961,
      "Ġniveau": 6962,
      "plan": 6963,
      "Ġapplications": 6964,
      "Ġ300": 6965,
      "Ġinfer": 6966,
      "Ġquelle": 6967,
      "ĠEnd": 6968,
      "druck": 6969,
      "ÃŃt": 6970,
      "Lo": 6971,
      "Ã¤sst": 6972,
      "ĠLog": 6973,
      "63": 6974,
      "cast": 6975,
      "ĠaquÃŃ": 6976,
      "https": 6977,
      "ĠRa": 6978,
      "Ġinstall": 6979,
      "Ġbesteht": 6980,
      "Ã®tre": 6981,
      "ĠFrancis": 6982,
      "Ġschw": 6983,
      "ĠRecht": 6984,
      "Ġsemp": 6985,
      "html": 6986,
      "Ġpolice": 6987,
      "ĠManagement": 6988,
      "Ġpropr": 6989,
      "ĠMarch": 6990,
      "eler": 6991,
      "esehen": 6992,
      "ĠDir": 6993,
      "Ġexemple": 6994,
      "wahl": 6995,
      "ĠFilm": 6996,
      "Ġerr": 6997,
      "esearch": 6998,
      "Ġintel": 6999,
      "xis": 7000,
      "ĠHealth": 7001,
      "Ġelimin": 7002,
      "Ġcad": 7003,
      "ĠLE": 7004,
      "Ġdepend": 7005,
      "Ã¤chst": 7006,
      "yth": 7007,
      "Ġley": 7008,
      "Ġhands": 7009,
      "Ġgives": 7010,
      "with": 7011,
      "Ġgrupp": 7012,
      "Ġrecherche": 7013,
      "Ġmettre": 7014,
      "Ġgave": 7015,
      "Ġnaveg": 7016,
      "ĠWindows": 7017,
      "used": 7018,
      "Ġ33": 7019,
      "ĊĠĠĠĠĠĠĠĠĠĠĠĠĠĠĠĠĠĠĠĠ": 7020,
      "Ġpad": 7021,
      "Ġassess": 7022,
      "ĠwÃ¤re": 7023,
      "ieri": 7024,
      "Ġcosts": 7025,
      "ellement": 7026,
      "ufen": 7027,
      "51": 7028,
      "Ġdavon": 7029,
      "partment": 7030,
      "ifi": 7031,
      "box": 7032,
      "IEN": 7033,
      "ĠFlor": 7034,
      "ĠAP": 7035,
      "ologies": 7036,
      "ĠdafÃ¼r": 7037,
      "ĠAuss": 7038,
      "gna": 7039,
      "ĠTour": 7040,
      "Ġcustomer": 7041,
      "Ġrecom": 7042,
      "Ġprograms": 7043,
      "Ġcurrently": 7044,
      "ismus": 7045,
      "Ġluego": 7046,
      "Ġbesonders": 7047,
      "Ġamor": 7048,
      "Ġunterschied": 7049,
      "ĠChristian": 7050,
      "ĠFebru": 7051,
      "Ġamaz": 7052,
      "Ġquasi": 7053,
      "bour": 7054,
      "Ġarbe": 7055,
      "fits": 7056,
      "ĠsystÃ¨me": 7057,
      "Ġnostra": 7058,
      "Ġleaders": 7059,
      "ĠPreis": 7060,
      "----------------": 7061,
      "Ġnueva": 7062,
      "ĠgrÃ¶": 7063,
      "Ġmodific": 7064,
      "ĠRem": 7065,
      "Ġpublished": 7066,
      "Ġmeille": 7067,
      "Ġaccept": 7068,
      "Ġinvece": 7069,
      "ĠMaria": 7070,
      "Ġrock": 7071,
      "ĠKlÃ¤": 7072,
      "Ġincreased": 7073,
      "Ġlit": 7074,
      "Ġvel": 7075,
      "Ġthroughout": 7076,
      "Ġdess": 7077,
      "52": 7078,
      "Ġempresa": 7079,
      "Ġinfluen": 7080,
      "aggi": 7081,
      "rebbe": 7082,
      "Ġinteresting": 7083,
      "Ġtherefore": 7084,
      "ĠHoch": 7085,
      "ĠUhr": 7086,
      "Ġscreen": 7087,
      "Ġmaggio": 7088,
      "62": 7089,
      "entemente": 7090,
      "hema": 7091,
      "ĠÃ¶ff": 7092,
      "UD": 7093,
      "Ġcirc": 7094,
      "ĠPati": 7095,
      "Ġlength": 7096,
      "Ġexpres": 7097,
      "wa": 7098,
      "Mail": 7099,
      "97": 7100,
      "ĠPost": 7101,
      "trÃ¤": 7102,
      "ĠAD": 7103,
      "Ġstoria": 7104,
      "Ġworked": 7105,
      "Ġdroits": 7106,
      "Ġstehen": 7107,
      "Ġconsult": 7108,
      "Ã¨mes": 7109,
      "Ġmethods": 7110,
      "ĠGroup": 7111,
      "Ġproyecto": 7112,
      "Ġenfer": 7113,
      "Ġcool": 7114,
      "ĠEste": 7115,
      "Ã¼s": 7116,
      "Ġsare": 7117,
      "Ġsales": 7118,
      "Ġextrem": 7119,
      "stellungen": 7120,
      "Ġrecht": 7121,
      "Ġcommit": 7122,
      "Ġrespond": 7123,
      "Ġbasis": 7124,
      "Ġavez": 7125,
      "Ġinn": 7126,
      "zus": 7127,
      "Ġmother": 7128,
      "Ġfactor": 7129,
      "porte": 7130,
      "venue": 7131,
      "Ġaten": 7132,
      "ĠDiv": 7133,
      "Ġdimens": 7134,
      "hler": 7135,
      "over": 7136,
      "ĠÃ©conom": 7137,
      "attle": 7138,
      "Ġmacht": 7139,
      "Note": 7140,
      "ĠtÃ©cn": 7141,
      "ĠBal": 7142,
      "tados": 7143,
      "ĠTher": 7144,
      "iben": 7145,
      "ĠHin": 7146,
      "Ġhaber": 7147,
      "Ġrecently": 7148,
      "ĠÂ¡": 7149,
      "Ġsaying": 7150,
      "Ġsecret": 7151,
      "Ġhoras": 7152,
      "set": 7153,
      "\",\"": 7154,
      "ĠFirst": 7155,
      "adie": 7156,
      "Ġmarzo": 7157,
      "Ġacuerdo": 7158,
      "Ġactive": 7159,
      "ĠMess": 7160,
      "Ġcelle": 7161,
      "Ġthus": 7162,
      "Ġgrado": 7163,
      "alitÃ©": 7164,
      "raum": 7165,
      "ĠOut": 7166,
      "Ġperspe": 7167,
      "ĠPhys": 7168,
      "eda": 7169,
      "ĠBand": 7170,
      "Ġnome": 7171,
      "Ġstabil": 7172,
      "Ã¨le": 7173,
      "immer": 7174,
      "61": 7175,
      "ois": 7176,
      "ĠSP": 7177,
      "Ġavoid": 7178,
      "Ġsalud": 7179,
      "Ġ1992": 7180,
      "Ġkids": 7181,
      "Ġunit": 7182,
      "iens": 7183,
      "Ġ1980": 7184,
      "ĠEuropean": 7185,
      "Ġpure": 7186,
      ".),": 7187,
      "km": 7188,
      "ritten": 7189,
      "Ġallows": 7190,
      "Ġfais": 7191,
      "ĠOf": 7192,
      "Ġsave": 7193,
      "Ġincorpor": 7194,
      "Ġmaggior": 7195,
      "gue": 7196,
      "Ġcuer": 7197,
      "Ġaper": 7198,
      "Ġarticles": 7199,
      "xico": 7200,
      "eur": 7201,
      "Ġderecho": 7202,
      "ĠEng": 7203,
      "Ġmillones": 7204,
      "Ġframe": 7205,
      "Ġperiodo": 7206,
      "ĠmÃ¡": 7207,
      "Ġdiverse": 7208,
      "-,": 7209,
      "ĠBereich": 7210,
      "olar": 7211,
      "lica": 7212,
      "Ġmobile": 7213,
      "ema": 7214,
      "Ġporte": 7215,
      "Ġalto": 7216,
      "mite": 7217,
      "Ġprep": 7218,
      "Ġdevice": 7219,
      "ibili": 7220,
      "iesen": 7221,
      "ĠOR": 7222,
      "Ġapare": 7223,
      "Ġpasado": 7224,
      "uche": 7225,
      "zel": 7226,
      "Ġcommand": 7227,
      "Ġstark": 7228,
      "Ġ..": 7229,
      "Ġbasic": 7230,
      "ĠpersÃ¶n": 7231,
      "ierungs": 7232,
      "VE": 7233,
      "pects": 7234,
      "ustrie": 7235,
      "ciendo": 7236,
      "titude": 7237,
      "ĠZug": 7238,
      "ĠPet": 7239,
      "Ġgerade": 7240,
      "Ġgoes": 7241,
      "ciÃ³": 7242,
      "Ġsexual": 7243,
      "Ġcapa": 7244,
      "blog": 7245,
      "ĠRis": 7246,
      "has": 7247,
      "OP": 7248,
      "Ġlooks": 7249,
      "ducation": 7250,
      "Ġdelivery": 7251,
      "ĠĊĊ": 7252,
      "osci": 7253,
      "itik": 7254,
      "Ã©tait": 7255,
      "Ġrichies": 7256,
      "Ġcalidad": 7257,
      "Ġmadre": 7258,
      "Ġ000": 7259,
      "iÃ¨me": 7260,
      "Ġmale": 7261,
      "Ġfelt": 7262,
      "Ġconstant": 7263,
      "oting": 7264,
      "ĠcÃ³mo": 7265,
      "ĠCounty": 7266,
      "Ġerste": 7267,
      "Ġconcep": 7268,
      "pas": 7269,
      "ĠRÃ©": 7270,
      "meno": 7271,
      "ĠGemein": 7272,
      "ĠTom": 7273,
      "ĠMadrid": 7274,
      "Ġthinking": 7275,
      "Ġgenau": 7276,
      "Ġexiste": 7277,
      "aling": 7278,
      "vole": 7279,
      "idÃ©": 7280,
      "zio": 7281,
      "ĠcÃ´": 7282,
      "icia": 7283,
      "Ġstage": 7284,
      "âĢľ,": 7285,
      "Ġwasn": 7286,
      "Ġconstit": 7287,
      "ideo": 7288,
      "ĠlÃ¤sst": 7289,
      "Ã¢ce": 7290,
      "ĠPers": 7291,
      "ĠdÃ©veloppement": 7292,
      "Ġincluy": 7293,
      "Ġcred": 7294,
      "Ġordin": 7295,
      "ĠDay": 7296,
      "iture": 7297,
      "ĠAcc": 7298,
      "Ġverso": 7299,
      "iat": 7300,
      "ĠBook": 7301,
      "Ġexpected": 7302,
      "Ġbelle": 7303,
      "Ġcompletely": 7304,
      "Ġzwar": 7305,
      "Ġwhose": 7306,
      "glio": 7307,
      "cker": 7308,
      "itare": 7309,
      "Ġbuilt": 7310,
      "ĠPeter": 7311,
      "Ġauto": 7312,
      "ĠBek": 7313,
      "Ġsouvent": 7314,
      "ĠÃīt": 7315,
      "tera": 7316,
      "Ġdernier": 7317,
      "Ġtechnique": 7318,
      "Ġbran": 7319,
      "ĠMel": 7320,
      "ibilidad": 7321,
      "vos": 7322,
      "ĠTab": 7323,
      "apy": 7324,
      "fas": 7325,
      "ĠHerr": 7326,
      "timmung": 7327,
      "ĠHotel": 7328,
      "Ġwenig": 7329,
      "Ġmad": 7330,
      "Ġdrive": 7331,
      "Ġtemperature": 7332,
      "VO": 7333,
      "adora": 7334,
      "ugg": 7335,
      "Ġcancer": 7336,
      "500": 7337,
      "ĠNacional": 7338,
      "Ġseek": 7339,
      "ĠspÃ¤ter": 7340,
      "itud": 7341,
      "Ġmodels": 7342,
      "Ġfinanz": 7343,
      "ĠHere": 7344,
      "ĠRob": 7345,
      "uali": 7346,
      "ius": 7347,
      "ĠSam": 7348,
      "Ġrestric": 7349,
      "tigt": 7350,
      "Ġconsist": 7351,
      "lated": 7352,
      "Ġcant": 7353,
      "ĠeconÃ³m": 7354,
      "Ġball": 7355,
      "ĠpolÃŃtica": 7356,
      "Ã¨te": 7357,
      "blo": 7358,
      "ĠdÃ©but": 7359,
      "Gra": 7360,
      "tivamente": 7361,
      "Ġhighly": 7362,
      "Ġlocated": 7363,
      "Ġgain": 7364,
      "onnement": 7365,
      "izo": 7366,
      "Ġrevis": 7367,
      "Ġast": 7368,
      "Ġps": 7369,
      "well": 7370,
      "lying": 7371,
      "Ġsau": 7372,
      "Ġresources": 7373,
      "Ġvariety": 7374,
      "Ġapoy": 7375,
      "utzt": 7376,
      "Ġpue": 7377,
      "ĠKn": 7378,
      "Ġalthough": 7379,
      "ĠÃĪ": 7380,
      "ĠCommun": 7381,
      "iler": 7382,
      "arlier": 7383,
      "Ġdest": 7384,
      "ĠTri": 7385,
      "Ġqualche": 7386,
      "Ġpurpose": 7387,
      "Ġrules": 7388,
      "ously": 7389,
      "ls": 7390,
      "Ġquickly": 7391,
      "Ġready": 7392,
      "activ": 7393,
      "ĠJose": 7394,
      "vey": 7395,
      "ĠUnidos": 7396,
      "Ġcertific": 7397,
      "Ġhit": 7398,
      "astro": 7399,
      "ĠCette": 7400,
      "uvre": 7401,
      "Ġut": 7402,
      "kre": 7403,
      "Ġasse": 7404,
      "Ġeyes": 7405,
      "ĠDeut": 7406,
      "fÃ¼hrung": 7407,
      "ĠeuropÃ©": 7408,
      "Fig": 7409,
      "Ġwrote": 7410,
      "Pre": 7411,
      "Ġrecogn": 7412,
      "ĠDepartment": 7413,
      "sequ": 7414,
      "Ġzus": 7415,
      "Ġdegree": 7416,
      "baren": 7417,
      "cciones": 7418,
      "Ġpersonenbe": 7419,
      "Ġsed": 7420,
      "Man": 7421,
      "Ġconstitu": 7422,
      "Pl": 7423,
      "Ġslow": 7424,
      "ĠBeit": 7425,
      "Ġnumbers": 7426,
      "Ġshipping": 7427,
      "antÃ©": 7428,
      "!!!!": 7429,
      "Ġreti": 7430,
      "tersuch": 7431,
      "ĠciÃ²": 7432,
      "Ġmachine": 7433,
      "Ġoil": 7434,
      "ĠON": 7435,
      "Ġexperiencia": 7436,
      "Ġentwick": 7437,
      "Ġsurv": 7438,
      "Ġcelebra": 7439,
      "tos": 7440,
      "chafts": 7441,
      "weisen": 7442,
      "Ġunderstanding": 7443,
      "Ġstrength": 7444,
      "ĠCi": 7445,
      "Ġtim": 7446,
      "Ã³s": 7447,
      "chaften": 7448,
      "Ã¤hlen": 7449,
      "Ġfaci": 7450,
      "Ġannoun": 7451,
      "Ġ1993": 7452,
      "ĠYo": 7453,
      "Ġreserv": 7454,
      "Ġesempio": 7455,
      "ĠGeschÃ¤": 7456,
      "Ġpresso": 7457,
      "cop": 7458,
      "antit": 7459,
      "Ġcub": 7460,
      "ustra": 7461,
      "izzare": 7462,
      "Ġversch": 7463,
      "Ġprograma": 7464,
      "Ġalta": 7465,
      "ĠThomas": 7466,
      "ĠBon": 7467,
      "ctura": 7468,
      "ĠgehÃ¶r": 7469,
      "ĠTH": 7470,
      "Ġmail": 7471,
      "istoire": 7472,
      "mis": 7473,
      "ĠGrand": 7474,
      "Ġsuppor": 7475,
      "ĠHen": 7476,
      "bbero": 7477,
      "Ġkn": 7478,
      "ĠTeam": 7479,
      "Ġintr": 7480,
      "ĠLaw": 7481,
      "EE": 7482,
      "Ġfamil": 7483,
      ".Â«": 7484,
      "ĠKind": 7485,
      "ĠEstado": 7486,
      "Ġreste": 7487,
      "reiben": 7488,
      "augh": 7489,
      "ĠAS": 7490,
      "essor": 7491,
      "Ġurb": 7492,
      "ĠMost": 7493,
      "othe": 7494,
      "Ġopportunity": 7495,
      "Ġacid": 7496,
      "del": 7497,
      "Ġcorpor": 7498,
      "Ġwide": 7499,
      "Ġphotograph": 7500,
      "non": 7501,
      "Ġwohl": 7502,
      "Ġerw": 7503,
      "Ġfel": 7504,
      "ĠCur": 7505,
      "Ġplans": 7506,
      "lles": 7507,
      "Ġcirca": 7508,
      "Ġgam": 7509,
      "Ġzeigt": 7510,
      "Ġstati": 7511,
      "izzato": 7512,
      "Ã¤u": 7513,
      "Ġtitle": 7514,
      "ĠSelbst": 7515,
      "ĠSar": 7516,
      "Ġmetal": 7517,
      "anni": 7518,
      "uestra": 7519,
      "Ġerror": 7520,
      "gro": 7521,
      "Ġprevious": 7522,
      "'.": 7523,
      "rew": 7524,
      "onde": 7525,
      "ordnung": 7526,
      "ĠGran": 7527,
      "ĠrÃ©gion": 7528,
      "Ġeinige": 7529,
      "Ġrefle": 7530,
      "ioso": 7531,
      "Ġbehavior": 7532,
      "Ġbank": 7533,
      "Ġcertains": 7534,
      "Ġnovembre": 7535,
      "eff": 7536,
      "Ġrequest": 7537,
      "ĠWohn": 7538,
      "Ġfont": 7539,
      "Ġerano": 7540,
      "Ġmej": 7541,
      "Ġavons": 7542,
      "tadt": 7543,
      "Ġ/>": 7544,
      "Ġsulle": 7545,
      "vgl": 7546,
      "field": 7547,
      "Ġ34": 7548,
      "ĠcompaÃ±": 7549,
      "Ġihnen": 7550,
      ">>": 7551,
      "Ġsolutions": 7552,
      "pass": 7553,
      "Ġconflic": 7554,
      "osen": 7555,
      "Ġbonne": 7556,
      "Ã¼nf": 7557,
      "Ġresto": 7558,
      "ĠniÃ±os": 7559,
      "Ġhot": 7560,
      "Una": 7561,
      "ĠISBN": 7562,
      "ĠResearch": 7563,
      "Ġmieux": 7564,
      "ĠrÃ©fÃ©r": 7565,
      "Ġhombre": 7566,
      "Ġzone": 7567,
      "ĠÐ": 7568,
      "ĠIhrem": 7569,
      "Ġactions": 7570,
      "Ġtrouve": 7571,
      "Ġstudent": 7572,
      "Ġstation": 7573,
      "Ġwollen": 7574,
      "ĠSchwe": 7575,
      "orb": 7576,
      "lÃ©ment": 7577,
      "Ġgiorn": 7578,
      "Ġcentre": 7579,
      "Ġinnerhalb": 7580,
      "Ġbrand": 7581,
      "Ġbeach": 7582,
      "Ġcomments": 7583,
      "Ġgreater": 7584,
      "ĊĠ": 7585,
      "Ġsujet": 7586,
      "Ġmotiv": 7587,
      "erk": 7588,
      "ĠperÃ²": 7589,
      "ĠPolicy": 7590,
      "ĠBi": 7591,
      "bare": 7592,
      "Ġaccord": 7593,
      "sweise": 7594,
      "ĠJesus": 7595,
      "Ġmiemb": 7596,
      "riÃ¨re": 7597,
      "iges": 7598,
      "umenti": 7599,
      "Ġfactors": 7600,
      "ĠDur": 7601,
      "Ġmid": 7602,
      "Ġcompet": 7603,
      "Ġgoal": 7604,
      "Ġbatter": 7605,
      "itas": 7606,
      "ÃĵN": 7607,
      "ĠSche": 7608,
      "Ġelectron": 7609,
      "ĠJune": 7610,
      "lla": 7611,
      "jourd": 7612,
      "Ġrelation": 7613,
      "ĠGegen": 7614,
      "ĠServices": 7615,
      "rique": 7616,
      "ĠMaterial": 7617,
      "Cl": 7618,
      "Ġindividu": 7619,
      "Ġparticularly": 7620,
      "Ġbound": 7621,
      "Ġtran": 7622,
      "Ġub": 7623,
      "Ġlack": 7624,
      "Ġproduit": 7625,
      "Ġconfirm": 7626,
      "iteratur": 7627,
      "Ġflex": 7628,
      "Ġinternation": 7629,
      "Ġdijo": 7630,
      "Ġresponsible": 7631,
      "Ġseguridad": 7632,
      "Ġnunca": 7633,
      "Ġprodotto": 7634,
      "Ġstuff": 7635,
      "ĠreprÃ©sent": 7636,
      "Car": 7637,
      "identi": 7638,
      "Ġmission": 7639,
      "Ġseguito": 7640,
      "Ġrare": 7641,
      "ĠXX": 7642,
      "apie": 7643,
      "idge": 7644,
      "Ġsell": 7645,
      "Ġpreg": 7646,
      "letter": 7647,
      "ĠMont": 7648,
      "issement": 7649,
      "ÃĪ": 7650,
      "ursos": 7651,
      "quel": 7652,
      "ĠPan": 7653,
      "rage": 7654,
      "ods": 7655,
      "ĠVerarbeitung": 7656,
      "TH": 7657,
      "Ġcolon": 7658,
      "Ġotten": 7659,
      "Ġrates": 7660,
      "Ġregul": 7661,
      "Ġmeaning": 7662,
      "Ġindividuals": 7663,
      "Ġterror": 7664,
      "Ġrispetto": 7665,
      "ugen": 7666,
      "liches": 7667,
      "olas": 7668,
      "Ġproven": 7669,
      "enste": 7670,
      "andom": 7671,
      "Ġgross": 7672,
      "Ġcentr": 7673,
      "atorio": 7674,
      "Ġautoma": 7675,
      "Nel": 7676,
      "Ġtransport": 7677,
      "orr": 7678,
      "Ġprevis": 7679,
      "eness": 7680,
      "Ġaw": 7681,
      "Ġtransform": 7682,
      "bb": 7683,
      "Ġjourn": 7684,
      "Ġguar": 7685,
      "Ġparticolare": 7686,
      "itis": 7687,
      "otte": 7688,
      "illing": 7689,
      "Ġabsolute": 7690,
      "Ġpodr": 7691,
      "ardi": 7692,
      "ĠBritish": 7693,
      "Ã¤nge": 7694,
      "89": 7695,
      "Ġchiam": 7696,
      "Ġsap": 7697,
      "ĠMiss": 7698,
      "Ġfight": 7699,
      "ĠdaB": 7700,
      "vest": 7701,
      "Ġtale": 7702,
      "?âĢĿ": 7703,
      "buch": 7704,
      "Ġelements": 7705,
      "Ġbamb": 7706,
      "enty": 7707,
      "Ġcomplic": 7708,
      "zar": 7709,
      "Ġreco": 7710,
      "Ġimper": 7711,
      "Ġincreasing": 7712,
      "Ġtried": 7713,
      "tero": 7714,
      "Ġrin": 7715,
      "Ġatten": 7716,
      "ĠSU": 7717,
      "Ġ1991": 7718,
      "pes": 7719,
      "Ital": 7720,
      "folg": 7721,
      "ulla": 7722,
      "ller": 7723,
      "Ġidentific": 7724,
      "Ġici": 7725,
      "ĠJahrhunder": 7726,
      "zzi": 7727,
      "leb": 7728,
      "anst": 7729,
      "Ġleading": 7730,
      "Ġplaces": 7731,
      "Ġbudget": 7732,
      "mel": 7733,
      "uts": 7734,
      "onio": 7735,
      "Ġroad": 7736,
      "roso": 7737,
      "Para": 7738,
      "Ġprove": 7739,
      "ĠUnion": 7740,
      "Ġsources": 7741,
      "Ġletzten": 7742,
      "board": 7743,
      "Ġknew": 7744,
      "Ġautomati": 7745,
      "ĠWert": 7746,
      "ĠEntwicklung": 7747,
      "eau": 7748,
      "ĠKr": 7749,
      "autre": 7750,
      "ĠIT": 7751,
      "itori": 7752,
      "Ġposto": 7753,
      "Ġfuera": 7754,
      "ĠPresident": 7755,
      "rench": 7756,
      "Ġalguna": 7757,
      "ds": 7758,
      "Ġtrattamento": 7759,
      "Vous": 7760,
      "ĠWahr": 7761,
      ".;": 7762,
      "Ġsiendo": 7763,
      "down": 7764,
      "ĠsociÃ©tÃ©": 7765,
      "arbeiter": 7766,
      "ec": 7767,
      "itely": 7768,
      "ĠDatenschutz": 7769,
      "ĠIndia": 7770,
      "renz": 7771,
      "Ġpiano": 7772,
      "Â§": 7773,
      "QU": 7774,
      "Ġturned": 7775,
      "ĠAT": 7776,
      "Ġinitial": 7777,
      "Ġrelease": 7778,
      "Ġpermett": 7779,
      "Ġheard": 7780,
      "Ã©ma": 7781,
      "Ġseguir": 7782,
      "Ġsafe": 7783,
      "derung": 7784,
      "Ġcompl": 7785,
      "Ġideal": 7786,
      "Ġschnell": 7787,
      "ĠInde": 7788,
      "ĠChamp": 7789,
      "Ġattraverso": 7790,
      "ĠWil": 7791,
      "ĠStar": 7792,
      "Ġelev": 7793,
      "Ġmorning": 7794,
      "leur": 7795,
      "Ã¼t": 7796,
      "Ġsociales": 7797,
      "ifen": 7798,
      "Ġderechos": 7799,
      "ĠâĨĴ": 7800,
      "ĠFigure": 7801,
      "Ġgab": 7802,
      "Ġseconda": 7803,
      "actions": 7804,
      "ĠLang": 7805,
      "itaire": 7806,
      "Ġgol": 7807,
      "Ġuseful": 7808,
      "bach": 7809,
      "entlichen": 7810,
      "Ġcriter": 7811,
      "ĠVon": 7812,
      "mals": 7813,
      "ĠFig": 7814,
      "kauf": 7815,
      "rane": 7816,
      "Ġsurtout": 7817,
      "Ġdad": 7818,
      "ĠKl": 7819,
      "NO": 7820,
      "Ġentrepr": 7821,
      "79": 7822,
      "Ġdisting": 7823,
      "orten": 7824,
      "Ġappropriate": 7825,
      "ancy": 7826,
      "imi": 7827,
      "Ġphase": 7828,
      "Ġentonces": 7829,
      "Ġsper": 7830,
      "quipe": 7831,
      "Ġdark": 7832,
      "Ġdecided": 7833,
      "Ġcarry": 7834,
      "aine": 7835,
      "Ġfunzion": 7836,
      "Ġbew": 7837,
      "px": 7838,
      "Ġpresenta": 7839,
      "icon": 7840,
      "Ġlle": 7841,
      "ĠPhil": 7842,
      "Ã¼l": 7843,
      "Ġdistance": 7844,
      "ellow": 7845,
      "ĠpaÃŃses": 7846,
      "Ġorganization": 7847,
      "gener": 7848,
      "Univers": 7849,
      "Ġcentury": 7850,
      "Ġdiscover": 7851,
      "sc": 7852,
      "ĠNutzung": 7853,
      "Ġmotor": 7854,
      "Ġlines": 7855,
      "ogli": 7856,
      "ĠSign": 7857,
      "ĠBur": 7858,
      "ĠSupp": 7859,
      "inu": 7860,
      "ĠBio": 7861,
      "Sta": 7862,
      "ĠKosten": 7863,
      "Ã¼cks": 7864,
      "allation": 7865,
      "ĠrÃ¨g": 7866,
      "Ġmeses": 7867,
      "ĠattivitÃł": 7868,
      "ĠMusik": 7869,
      "Ġhub": 7870,
      "zog": 7871,
      "ĠBu": 7872,
      "Ġamer": 7873,
      "Ġincluso": 7874,
      "Ġbul": 7875,
      "Ġmeeting": 7876,
      "isches": 7877,
      "Ġparten": 7878,
      "fluss": 7879,
      "ĠGed": 7880,
      "Ġjeden": 7881,
      "ctober": 7882,
      "Ġprogramme": 7883,
      "ĠBrow": 7884,
      "Ġexpect": 7885,
      "Ġspirit": 7886,
      "klÃ¤rung": 7887,
      "Ġkurz": 7888,
      "Ġdirekt": 7889,
      "ĠMA": 7890,
      "ME": 7891,
      "85": 7892,
      "ĠpÃ©ri": 7893,
      "ront": 7894,
      "CC": 7895,
      "ĠChem": 7896,
      "aliano": 7897,
      "Ġgets": 7898,
      "ĠFrauen": 7899,
      "aktion": 7900,
      "Ob": 7901,
      "uly": 7902,
      "Aus": 7903,
      "Ġqueste": 7904,
      "Ġcadre": 7905,
      "ticamente": 7906,
      "Ġpoor": 7907,
      "Ġminor": 7908,
      "tsch": 7909,
      "ĠSite": 7910,
      "Ġestr": 7911,
      "ĠJuan": 7912,
      "Ġpartecip": 7913,
      "Ġfib": 7914,
      "Ġefe": 7915,
      "illet": 7916,
      "Ġvielen": 7917,
      "Cu": 7918,
      "Ġdecl": 7919,
      "contra": 7920,
      "iligen": 7921,
      "Ġbirth": 7922,
      "Ġplaying": 7923,
      "ĠWeg": 7924,
      "Ġbefind": 7925,
      "Figure": 7926,
      "cipe": 7927,
      "Ġlado": 7928,
      "ĠAv": 7929,
      "Ġfamille": 7930,
      "Ġcontext": 7931,
      "spe": 7932,
      "Ġgiving": 7933,
      "Ġcareer": 7934,
      "Ġinsbesondere": 7935,
      "Ã©rer": 7936,
      "ĠLeg": 7937,
      "spr": 7938,
      "ĠrelaciÃ³n": 7939,
      "igens": 7940,
      "yers": 7941,
      "DF": 7942,
      "rance": 7943,
      "ĠNav": 7944,
      "Ġdessen": 7945,
      "ae": 7946,
      "word": 7947,
      "otos": 7948,
      "Ġsozial": 7949,
      "ading": 7950,
      "bereich": 7951,
      "\")": 7952,
      "Ġ75": 7953,
      "Ġsun": 7954,
      "ĠNr": 7955,
      "Ġmaximum": 7956,
      "Ġalbum": 7957,
      "Ġsignal": 7958,
      "Ġbrought": 7959,
      "tiÃ¨re": 7960,
      "ĠsÃ©curitÃ©": 7961,
      "MP": 7962,
      "Ġheraus": 7963,
      "ML": 7964,
      "ivamente": 7965,
      "Ġloi": 7966,
      "schnitt": 7967,
      "Ġspecies": 7968,
      "lands": 7969,
      "IX": 7970,
      "Ġihrem": 7971,
      "ĠDÃ©": 7972,
      "Ġestoy": 7973,
      "Ġearlier": 7974,
      "Ġplate": 7975,
      "ĠMartin": 7976,
      "Ġencontrar": 7977,
      "ĠrÃ©sult": 7978,
      "user": 7979,
      "ults": 7980,
      "aise": 7981,
      "Nach": 7982,
      "Ġwegen": 7983,
      "Ġscel": 7984,
      "Ġproperties": 7985,
      "iciones": 7986,
      "Ġmaison": 7987,
      "schung": 7988,
      "ĠAG": 7989,
      "ĠPas": 7990,
      "Ġgenerally": 7991,
      "Ġskills": 7992,
      "Ġerfolg": 7993,
      "yright": 7994,
      "Ġisol": 7995,
      "Nous": 7996,
      "Ġcaracter": 7997,
      "Ġrealizar": 7998,
      "ragen": 7999,
      "Ġmental": 8000,
      "Ġsociale": 8001,
      "ĠGeorge": 8002,
      "Ġjue": 8003,
      "ĠCop": 8004,
      "ĠJug": 8005,
      "undial": 8006,
      "ĠWhite": 8007,
      "ĠVis": 8008,
      "Ġcapt": 8009,
      "arian": 8010,
      "ĠsÃ©rie": 8011,
      "Ġfully": 8012,
      "Ġcod": 8013,
      "ded": 8014,
      "ĠBeruf": 8015,
      "ĠProte": 8016,
      "range": 8017,
      "ĠLat": 8018,
      "Ġinclu": 8019,
      "ĠFa": 8020,
      "Ġbegin": 8021,
      "Ġtag": 8022,
      "Ġgemeins": 8023,
      "ĠartÃŃculo": 8024,
      "Ġpia": 8025,
      "Ġestre": 8026,
      "lip": 8027,
      "Ġdefined": 8028,
      "estra": 8029,
      "Ġdead": 8030,
      "ĠBede": 8031,
      "chsel": 8032,
      "ĠMem": 8033,
      "Ġrub": 8034,
      "ĠPass": 8035,
      "Ġwirklich": 8036,
      "Ġora": 8037,
      "ĠME": 8038,
      "ency": 8039,
      "Ġjun": 8040,
      "Ġphilosoph": 8041,
      "istenza": 8042,
      "Ġpris": 8043,
      "ĠDig": 8044,
      "uste": 8045,
      "matic": 8046,
      "ĠJud": 8047,
      "anced": 8048,
      "ĠÃ©c": 8049,
      "ĠVerfÃ¼": 8050,
      "bility": 8051,
      "ikan": 8052,
      "ĠSince": 8053,
      "plex": 8054,
      "Do": 8055,
      "ĠUK": 8056,
      "Ġfeed": 8057,
      "Ġ49": 8058,
      "Ġrepe": 8059,
      "Ġscrit": 8060,
      "Ġsema": 8061,
      "quis": 8062,
      "Fe": 8063,
      "fÃ¤h": 8064,
      "ĠPlatz": 8065,
      "urre": 8066,
      "php": 8067,
      "Ġaggi": 8068,
      "Ġnega": 8069,
      "Ġreve": 8070,
      "Ġtitre": 8071,
      "ĠUl": 8072,
      "Ġgouvern": 8073,
      "oring": 8074,
      "ohl": 8075,
      "Ã¨ve": 8076,
      "Ġsmart": 8077,
      "Ġinterven": 8078,
      "Ġmonitor": 8079,
      "Ġobjet": 8080,
      "Est": 8081,
      "ormal": 8082,
      "Ġallerdings": 8083,
      "piel": 8084,
      "Ã¡r": 8085,
      "Ġterritorio": 8086,
      "ĠEven": 8087,
      "ĠLO": 8088,
      "Ġverschiedenen": 8089,
      "artment": 8090,
      "annte": 8091,
      "otta": 8092,
      "sa": 8093,
      "Ġhomme": 8094,
      "ĠSport": 8095,
      "ĠFach": 8096,
      "\":\"": 8097,
      "bur": 8098,
      "Ġlisten": 8099,
      "Ġmu": 8100,
      "Ġgesti": 8101,
      "Ġskin": 8102,
      "Ġemple": 8103,
      "Ġattack": 8104,
      "iov": 8105,
      "Ġzahl": 8106,
      "ĠAlle": 8107,
      "Ġapproxim": 8108,
      "ĠCro": 8109,
      "Ġdoor": 8110,
      "inf": 8111,
      "Ġfuturo": 8112,
      "Ġeffort": 8113,
      "Ġweniger": 8114,
      "omme": 8115,
      "Ġbeyond": 8116,
      "ĠEp": 8117,
      "Ġebenfalls": 8118,
      "aries": 8119,
      "essi": 8120,
      "Ġexactly": 8121,
      "Ġprotagon": 8122,
      "Ġsosten": 8123,
      "grupp": 8124,
      "umer": 8125,
      "Ġvost": 8126,
      "Ġfather": 8127,
      "welt": 8128,
      "Ġsiglo": 8129,
      "Ġescrib": 8130,
      "Ġstudio": 8131,
      "87": 8132,
      "Ġtowards": 8133,
      "ĠAny": 8134,
      "ĠprÃ¡c": 8135,
      "Ġinterview": 8136,
      "ĠDS": 8137,
      "Ġpied": 8138,
      "Ġdiscussion": 8139,
      "ĠSem": 8140,
      "Ġak": 8141,
      "ĠProdukt": 8142,
      "Ġtrade": 8143,
      "ĠEU": 8144,
      "rache": 8145,
      "Ġwall": 8146,
      "Ġproviding": 8147,
      "ibly": 8148,
      "utilisation": 8149,
      "Ġround": 8150,
      "Ġsull": 8151,
      "ï¿½": 8152,
      "ĠKlÃ¤ger": 8153,
      "Ġearn": 8154,
      "Ġmarch": 8155,
      "Ġforms": 8156,
      "Ġhair": 8157,
      "Ġmole": 8158,
      "Ġdiscipl": 8159,
      "Ġcircu": 8160,
      "Ac": 8161,
      "ĠKre": 8162,
      "ĠZus": 8163,
      "Ã¤tze": 8164,
      "illi": 8165,
      "Ġnegli": 8166,
      "rog": 8167,
      "Ġrelacion": 8168,
      "Ġcry": 8169,
      "Ġprint": 8170,
      "Ġhospital": 8171,
      "Ġcontract": 8172,
      "enter": 8173,
      "Ġprevent": 8174,
      "ersch": 8175,
      "ĠCamb": 8176,
      "riebs": 8177,
      "Ġchoix": 8178,
      "izes": 8179,
      "mehr": 8180,
      "ĠCollege": 8181,
      "Ġlegge": 8182,
      "Ġextr": 8183,
      "Ġproblemas": 8184,
      "Dans": 8185,
      "loss": 8186,
      "Ġparece": 8187,
      "Ġobv": 8188,
      "ĠJuly": 8189,
      "ĠAlthough": 8190,
      "angel": 8191,
      "iali": 8192,
      "ĠAmaz": 8193,
      "ĠÃģ": 8194,
      "Ġ150": 8195,
      "cando": 8196,
      "ĠSud": 8197,
      "Ġspeed": 8198,
      "ĠTop": 8199,
      "Ġplayed": 8200,
      "Ġforces": 8201,
      "Ġsurpr": 8202,
      "zÃ¼": 8203,
      "AND": 8204,
      "Cook": 8205,
      "aga": 8206,
      "Ġalter": 8207,
      "Ġunseren": 8208,
      "chnik": 8209,
      "Ġlooked": 8210,
      "Ġalgunas": 8211,
      "ĠIhren": 8212,
      "Ġrein": 8213,
      "uh": 8214,
      "ĠWeiter": 8215,
      "ĠBesuch": 8216,
      "Ġenv": 8217,
      "ĠText": 8218,
      "ience": 8219,
      "cter": 8220,
      "Ġinse": 8221,
      "Ġsuperfic": 8222,
      "menti": 8223,
      "tene": 8224,
      "Ġreli": 8225,
      "Ġcontempor": 8226,
      "ev": 8227,
      "ĠMÃ©xico": 8228,
      "ĠCes": 8229,
      "usa": 8230,
      "Ġhost": 8231,
      "rab": 8232,
      "ĠDabei": 8233,
      "Ġjunto": 8234,
      "Ġallowed": 8235,
      "ference": 8236,
      "Ã¤tzlich": 8237,
      "Ġerfolgt": 8238,
      "gere": 8239,
      "hors": 8240,
      "Ġsiguiente": 8241,
      "ĠArgent": 8242,
      "Ġlargo": 8243,
      "Ġchurch": 8244,
      "ĠRock": 8245,
      "Ġgobierno": 8246,
      "Ġtrain": 8247,
      "ĠHall": 8248,
      "Auf": 8249,
      "Ġstatus": 8250,
      "Ġselect": 8251,
      "Ġ1989": 8252,
      "mac": 8253,
      "Ġalone": 8254,
      "Ġsopr": 8255,
      "Ġpiece": 8256,
      "Ġefforts": 8257,
      "Ġsociety": 8258,
      "ĠGreen": 8259,
      "Ġneigh": 8260,
      "Ġpobla": 8261,
      "Ġsafety": 8262,
      "abili": 8263,
      "quir": 8264,
      "uma": 8265,
      "ĠBusiness": 8266,
      "ĠMÃ¼n": 8267,
      "ciales": 8268,
      "utos": 8269,
      "edor": 8270,
      "Ġlasci": 8271,
      "Ġye": 8272,
      "ĠGeld": 8273,
      "Mon": 8274,
      "Ġnorma": 8275,
      "Ġlaws": 8276,
      "ĠKonta": 8277,
      "aper": 8278,
      "Ġneben": 8279,
      "athol": 8280,
      "Ġdens": 8281,
      "ĠTar": 8282,
      "Jo": 8283,
      "autÃ©": 8284,
      "Ġforte": 8285,
      "Ġraggi": 8286,
      "grÃ¼nd": 8287,
      "ichert": 8288,
      "Ġallo": 8289,
      "Ġstarting": 8290,
      "eron": 8291,
      "erci": 8292,
      "ĠArtikel": 8293,
      "mÃ¤ÃŁ": 8294,
      "That": 8295,
      "isser": 8296,
      "BS": 8297,
      "tido": 8298,
      "Ġheat": 8299,
      "xic": 8300,
      "Ġcultural": 8301,
      "ĠgegenÃ¼ber": 8302,
      "Ġkit": 8303,
      "Ġnotice": 8304,
      "Gr": 8305,
      "Ġplant": 8306,
      "arla": 8307,
      "aught": 8308,
      "ckt": 8309,
      "bu": 8310,
      "itung": 8311,
      "ĠGold": 8312,
      "ĠpelÃŃcul": 8313,
      "Ġbeginning": 8314,
      "zia": 8315,
      "Â¡": 8316,
      "ĠRicht": 8317,
      "bindung": 8318,
      "Ġpaid": 8319,
      "Ġintellig": 8320,
      "ĠbÃ©nÃ©": 8321,
      "keits": 8322,
      "ocation": 8323,
      "Ġ1970": 8324,
      "Ġprices": 8325,
      "Ġvraiment": 8326,
      "Ġachieve": 8327,
      "Ġassist": 8328,
      "Ã¼rger": 8329,
      "________________": 8330,
      "icazione": 8331,
      "Europ": 8332,
      "96": 8333,
      "Ġsmo": 8334,
      "Ġdaily": 8335,
      "Ġenable": 8336,
      "ĠSand": 8337,
      "Ġlavor": 8338,
      "ĠkÃ¶nnte": 8339,
      "Ġcose": 8340,
      "ESS": 8341,
      "Ġrequirements": 8342,
      "Ġconsecu": 8343,
      "anges": 8344,
      "Ġexerc": 8345,
      "Ġbesoin": 8346,
      "azioni": 8347,
      "Ġexcellent": 8348,
      "person": 8349,
      "Ġnord": 8350,
      "Ġestudi": 8351,
      "Ġvarios": 8352,
      "ĠHome": 8353,
      "ike": 8354,
      "Ġeye": 8355,
      "Ġcasos": 8356,
      "Ġrifer": 8357,
      "Ġneur": 8358,
      "Ġotherwise": 8359,
      "ĠCookie": 8360,
      "oute": 8361,
      "ĠData": 8362,
      "Ġkeinen": 8363,
      "fung": 8364,
      "arÃ¡n": 8365,
      "Ġcumpl": 8366,
      "Ġeuros": 8367,
      "Ġ_": 8368,
      "Ġship": 8369,
      "Ġpuedes": 8370,
      "ĠScience": 8371,
      "ionales": 8372,
      "sein": 8373,
      "tu": 8374,
      "uns": 8375,
      "Ġtools": 8376,
      "ĠThus": 8377,
      "ĠMot": 8378,
      "Ġmembres": 8379,
      "Ãľ": 8380,
      "atever": 8381,
      "Ġsvol": 8382,
      "Ġamazing": 8383,
      "Ġobra": 8384,
      "Ġmemory": 8385,
      "Ġsollten": 8386,
      "ĠĊĠĠĠĠĠĠĠĠ": 8387,
      "Ġobject": 8388,
      "Ġaujourd": 8389,
      "ĠEconom": 8390,
      "abel": 8391,
      "Ġagosto": 8392,
      "teile": 8393,
      "Ġindem": 8394,
      "Ġfindet": 8395,
      "Ġcerca": 8396,
      "Ġtrip": 8397,
      "ĠsituaciÃ³n": 8398,
      "Ġhttps": 8399,
      "Ġ(*": 8400,
      "Ġmaintain": 8401,
      "2010": 8402,
      "aste": 8403,
      "cember": 8404,
      "2012": 8405,
      "ĠProblem": 8406,
      "right": 8407,
      "Ġagric": 8408,
      "Ġabge": 8409,
      "Ġtir": 8410,
      "ĠPlus": 8411,
      "Ġinterior": 8412,
      "ĠWell": 8413,
      "Ġcompared": 8414,
      "ĠFrau": 8415,
      "Ġdesta": 8416,
      "anken": 8417,
      "ĠsocietÃł": 8418,
      "quoi": 8419,
      "ĠErfahr": 8420,
      "annel": 8421,
      "ctives": 8422,
      "iction": 8423,
      "itan": 8424,
      "Ġlange": 8425,
      "Ġabbiamo": 8426,
      "Ġgegeben": 8427,
      "Ġmillions": 8428,
      "Ġquanti": 8429,
      "iencia": 8430,
      "Ġencuentra": 8431,
      "ĠStru": 8432,
      "ilo": 8433,
      "arme": 8434,
      "ĠHal": 8435,
      "Ġapplied": 8436,
      "ĠVertra": 8437,
      "Ġbietet": 8438,
      "ĠGovern": 8439,
      "fortable": 8440,
      "ĠLouis": 8441,
      "ĠGal": 8442,
      "orti": 8443,
      "embl": 8444,
      "Ġcav": 8445,
      "ĠSecret": 8446,
      "ctos": 8447,
      "house": 8448,
      "opera": 8449,
      "kosten": 8450,
      "Ġcart": 8451,
      "Ġmemb": 8452,
      "erte": 8453,
      "Wenn": 8454,
      "Ã¡p": 8455,
      "Ġstatement": 8456,
      "Ġdocuments": 8457,
      "Ġfunctions": 8458,
      "ÂłÂłÂłÂł": 8459,
      "Ġempresas": 8460,
      "Ġcaract": 8461,
      "coli": 8462,
      "Ġfen": 8463,
      "ij": 8464,
      "ĊĠĠĠĠĠĠĠĠĠĠĠĠĠĠĠĠ": 8465,
      "illas": 8466,
      "Ġtiss": 8467,
      "Ġstag": 8468,
      "Ġmaybe": 8469,
      "atus": 8470,
      "76": 8471,
      "cs": 8472,
      "here": 8473,
      "ĠFÃ¤": 8474,
      "Che": 8475,
      "place": 8476,
      "Ġconfir": 8477,
      "Ã±as": 8478,
      "roffen": 8479,
      "iede": 8480,
      "Ġmovie": 8481,
      "ĊĠĠĠĠĠĠĠĠĠĠĠĠĠĠ": 8482,
      "handlung": 8483,
      "ĠmÃ©d": 8484,
      "âĢĶâĢĶ": 8485,
      "86": 8486,
      "onds": 8487,
      "Ġrelevant": 8488,
      "Ġeuro": 8489,
      "Ġnacional": 8490,
      "Ġthreat": 8491,
      "ĠSeg": 8492,
      "Ġdivis": 8493,
      "Ġpose": 8494,
      "Ġvul": 8495,
      "Ġplayer": 8496,
      "Ġmanifesta": 8497,
      "ĠmaniÃ¨re": 8498,
      "Ġ-,": 8499,
      "Ġvengono": 8500,
      "ĠMex": 8501,
      "cision": 8502,
      "Ġreasons": 8503,
      "Ġnotwend": 8504,
      "Ġvolte": 8505,
      "Ã¡m": 8506,
      "Ġmiles": 8507,
      "Ã®t": 8508,
      "Ġsport": 8509,
      "Ġquelli": 8510,
      "2011": 8511,
      "Ġhora": 8512,
      "Ġimpos": 8513,
      "Ġinterested": 8514,
      "ĠPersonen": 8515,
      "Co": 8516,
      "Ġconcl": 8517,
      "2013": 8518,
      "Ġhinter": 8519,
      "ĠdÃ©fin": 8520,
      "tanto": 8521,
      "ubre": 8522,
      "Ġverste": 8523,
      "nelle": 8524,
      "icherung": 8525,
      "ĠJava": 8526,
      "ĠCle": 8527,
      "blick": 8528,
      "nement": 8529,
      "Ġerkenn": 8530,
      "inar": 8531,
      "tition": 8532,
      "attutto": 8533,
      "Ġpartners": 8534,
      "Ġinsieme": 8535,
      "mitt": 8536,
      "Ġmovement": 8537,
      "ĠDienst": 8538,
      "Ġprimary": 8539,
      "Ġretour": 8540,
      "Ġfavorite": 8541,
      "Ġlarger": 8542,
      "tidad": 8543,
      "Ġcoordin": 8544,
      "Aut": 8545,
      "pen": 8546,
      "Ġnuova": 8547,
      "ĠWeise": 8548,
      "ĠKap": 8549,
      "Ġ1988": 8550,
      "issent": 8551,
      "Ġtua": 8552,
      "Ġtrouver": 8553,
      "ĠZur": 8554,
      "ĠaÃºn": 8555,
      "72": 8556,
      "Ġwes": 8557,
      "mini": 8558,
      "Ġexecu": 8559,
      "Ġstessa": 8560,
      "Ġsogar": 8561,
      "Ġestern": 8562,
      "Ġrace": 8563,
      "nels": 8564,
      "Ġhus": 8565,
      "Fil": 8566,
      "Ġproduced": 8567,
      "arten": 8568,
      "Ġscon": 8569,
      "Ġessenti": 8570,
      "Ġgemacht": 8571,
      "Ġpassion": 8572,
      "Ġprivacy": 8573,
      "Ġbenefits": 8574,
      "Ġdiss": 8575,
      "Ġconosc": 8576,
      "ĠMehr": 8577,
      "Ġconcre": 8578,
      "hnt": 8579,
      "Ġhistori": 8580,
      "ĠStreet": 8581,
      "Ġneut": 8582,
      "ĠGet": 8583,
      "94": 8584,
      "Ġcorso": 8585,
      "Ġadvertis": 8586,
      "GE": 8587,
      "uation": 8588,
      "Ġwife": 8589,
      "adra": 8590,
      "Ġnegative": 8591,
      "Ġpaci": 8592,
      "Ġinfatti": 8593,
      "ĠRep": 8594,
      "Ġmateria": 8595,
      "that": 8596,
      "Ġayuda": 8597,
      "Ġgehen": 8598,
      "ĠPrim": 8599,
      "Ġusuario": 8600,
      "Ġjournal": 8601,
      "ĠVerein": 8602,
      "ĠEast": 8603,
      "IER": 8604,
      "FF": 8605,
      "ĠTwitter": 8606,
      "dire": 8607,
      "Ġperhaps": 8608,
      "Ġrecuper": 8609,
      "Ġimmediately": 8610,
      "trie": 8611,
      "Ġpicture": 8612,
      "Ġgrazie": 8613,
      "Ġargument": 8614,
      "Ġstellt": 8615,
      "stre": 8616,
      "Ġerre": 8617,
      "Ġsollen": 8618,
      "Ġ42": 8619,
      "Ġsession": 8620,
      "ĠSing": 8621,
      "Ġoffre": 8622,
      "ciale": 8623,
      "71": 8624,
      "Ġentend": 8625,
      "Ġhinaus": 8626,
      "ĠTrump": 8627,
      "ogni": 8628,
      "Ġselection": 8629,
      "2014": 8630,
      "tor": 8631,
      "ĠfaÃ§on": 8632,
      "Esta": 8633,
      "zent": 8634,
      "Ġproto": 8635,
      "Script": 8636,
      "endes": 8637,
      "Ġsoul": 8638,
      "ĠBÃ¼": 8639,
      "Ġbisher": 8640,
      "gorith": 8641,
      "Ġtroub": 8642,
      "ernen": 8643,
      "ĠSus": 8644,
      "ĠEvery": 8645,
      "Ġvision": 8646,
      "Ġcertainly": 8647,
      "information": 8648,
      "ĠSatur": 8649,
      "ĠMiche": 8650,
      "Ġdress": 8651,
      "Ġfis": 8652,
      "term": 8653,
      "iesa": 8654,
      "ĠMond": 8655,
      "gno": 8656,
      "92": 8657,
      "ĠVo": 8658,
      "Ġreduce": 8659,
      "Ġeje": 8660,
      "Ġdamage": 8661,
      "Ġfinally": 8662,
      "Ġtelevis": 8663,
      "ĠannÃ©e": 8664,
      "ĠPot": 8665,
      "Ġimposs": 8666,
      "Ã³l": 8667,
      "ĠOctober": 8668,
      "Ġsummer": 8669,
      "Ġhatten": 8670,
      "nach": 8671,
      "Ġmilitary": 8672,
      "ĠAbb": 8673,
      "ĠGrÃ¼n": 8674,
      "Ġpoly": 8675,
      "Ġhop": 8676,
      "Ġfisc": 8677,
      "Ġconn": 8678,
      "ichtlich": 8679,
      "ĠBedeutung": 8680,
      "Ġprojects": 8681,
      "ĠGeschichte": 8682,
      "ĠrÃ©se": 8683,
      "Ġtraditional": 8684,
      "Ġhuge": 8685,
      "Ġmiddle": 8686,
      "poses": 8687,
      "ĠKunst": 8688,
      "Ġ55": 8689,
      "Ġfemmes": 8690,
      "dez": 8691,
      "ĠUp": 8692,
      "Ġbuena": 8693,
      "Ġappears": 8694,
      "zogenen": 8695,
      "2016": 8696,
      "ridge": 8697,
      "pg": 8698,
      "Ã©rÃ©": 8699,
      "ĠInte": 8700,
      "Ġkam": 8701,
      "Ġsuggest": 8702,
      "strong": 8703,
      "ĠJanuary": 8704,
      "ĠBru": 8705,
      "usti": 8706,
      "Ġcanc": 8707,
      "ĠFur": 8708,
      "CR": 8709,
      "ĠOrd": 8710,
      "Sin": 8711,
      "Ġthous": 8712,
      "Ã«": 8713,
      "Ġtruth": 8714,
      "Abb": 8715,
      "ĠNat": 8716,
      "Ġtravers": 8717,
      "ĠEv": 8718,
      "etes": 8719,
      "Ġtool": 8720,
      "Ã¤hlt": 8721,
      "Ġestablished": 8722,
      "Ġpreoc": 8723,
      "orso": 8724,
      "erta": 8725,
      "Ġsolche": 8726,
      "ĠpiÃ¨": 8727,
      "Ġfamiliar": 8728,
      "Une": 8729,
      "Ġmeisten": 8730,
      "ĠPrem": 8731,
      "Ġmujeres": 8732,
      "Ġchanged": 8733,
      "Ġperf": 8734,
      "vec": 8735,
      "ieux": 8736,
      "Ġintent": 8737,
      "ĠÃ³": 8738,
      "Bl": 8739,
      "hann": 8740,
      "bili": 8741,
      "immt": 8742,
      "ĠUniversidad": 8743,
      "Ġnaturale": 8744,
      "etro": 8745,
      "Ġjeu": 8746,
      "Ġbrain": 8747,
      "cape": 8748,
      "Our": 8749,
      "ĠJer": 8750,
      "Ġcuatro": 8751,
      "Ġness": 8752,
      "ĠRaum": 8753,
      "ĠFragen": 8754,
      "Ġaspect": 8755,
      "Ġdomain": 8756,
      "Ġtenemos": 8757,
      "Ġseulement": 8758,
      "Ġroute": 8759,
      "Ġfollowed": 8760,
      "Ġfeeling": 8761,
      "ĠmÃºs": 8762,
      "Ġseul": 8763,
      "NE": 8764,
      "Ġinfluence": 8765,
      "Ber": 8766,
      "unction": 8767,
      "ĠRoman": 8768,
      "iber": 8769,
      "ĠSO": 8770,
      "Ġcritical": 8771,
      "ĠHaupt": 8772,
      "ĠLy": 8773,
      "ĠDevelop": 8774,
      "Ġll": 8775,
      "Ġpresented": 8776,
      "abs": 8777,
      "ĠComput": 8778,
      "gesetz": 8779,
      "Ġcrea": 8780,
      "Ġactividades": 8781,
      "Ġ65": 8782,
      "Ġrespecto": 8783,
      "DR": 8784,
      "Ġmap": 8785,
      "Ġmostr": 8786,
      "Ġtercer": 8787,
      "izado": 8788,
      "Ġricerca": 8789,
      "Ġconcentra": 8790,
      "ĠvÃ©": 8791,
      "unÃ¤chst": 8792,
      "Ġmel": 8793,
      "inde": 8794,
      "Ġmut": 8795,
      "pher": 8796,
      "ĠTable": 8797,
      "ĠnatÃ¼rlich": 8798,
      "zens": 8799,
      "VA": 8800,
      "::": 8801,
      "Ġbast": 8802,
      "ĠOther": 8803,
      "not": 8804,
      "ĠProzent": 8805,
      "termin": 8806,
      "indre": 8807,
      "ĠgrÃ¢ce": 8808,
      "Ġdoctor": 8809,
      "ĠCos": 8810,
      "82": 8811,
      "Cont": 8812,
      "></": 8813,
      "ĠPM": 8814,
      "tant": 8815,
      "Ġhous": 8816,
      "Ġpropose": 8817,
      "ĠEngland": 8818,
      "Ġequipment": 8819,
      "Ġpaz": 8820,
      "unkte": 8821,
      "Ġacep": 8822,
      "84": 8823,
      "With": 8824,
      "ĠpÃ¡gina": 8825,
      "unik": 8826,
      "Ġquoti": 8827,
      "itez": 8828,
      "Ġobtained": 8829,
      "ĠClass": 8830,
      "Ġaudien": 8831,
      "Ġappreci": 8832,
      "Ġtoward": 8833,
      "Ġlatest": 8834,
      "Ġguide": 8835,
      "Ġquantit": 8836,
      "73": 8837,
      "ĠprÃ©c": 8838,
      "lesia": 8839,
      "ĠÃĢ": 8840,
      "Ġstories": 8841,
      "Ġfat": 8842,
      "Ġchapter": 8843,
      "Ġspl": 8844,
      "ĠVari": 8845,
      "ĠverfÃ¼": 8846,
      "igkeiten": 8847,
      "Ġsouha": 8848,
      "Ġcreo": 8849,
      "kel": 8850,
      "Ġgreen": 8851,
      "anzen": 8852,
      "ificaciÃ³n": 8853,
      "igten": 8854,
      "ĠThema": 8855,
      "ĠAssociation": 8856,
      "wid": 8857,
      "pons": 8858,
      "Ġbroad": 8859,
      "Ġcollect": 8860,
      "itore": 8861,
      "ĠCompany": 8862,
      "ĠSmith": 8863,
      "83": 8864,
      "arle": 8865,
      "ĠPay": 8866,
      "ket": 8867,
      "ĠGleich": 8868,
      "ĠOpen": 8869,
      "tivity": 8870,
      "Ġstellen": 8871,
      "Ġdiam": 8872,
      "Ġserver": 8873,
      "One": 8874,
      "ieu": 8875,
      "Ġaseg": 8876,
      "Ġcondiciones": 8877,
      "2017": 8878,
      "toire": 8879,
      "undred": 8880,
      "ICH": 8881,
      "Ġbecomes": 8882,
      "oint": 8883,
      "ifer": 8884,
      "omer": 8885,
      "Ġcomprom": 8886,
      "pie": 8887,
      "crib": 8888,
      "ady": 8889,
      "Ġ1987": 8890,
      "Ġrequires": 8891,
      "Ġ@": 8892,
      "74": 8893,
      "Ġinterv": 8894,
      "Ġpeso": 8895,
      "alien": 8896,
      "altro": 8897,
      "Ġconocer": 8898,
      "Ġfrag": 8899,
      "Ġcuerpo": 8900,
      "gency": 8901,
      "Ġdiver": 8902,
      "ĠPublic": 8903,
      "halts": 8904,
      "Ġregia": 8905,
      "ĠrÃ©pond": 8906,
      "Ġsit": 8907,
      "Ġcollege": 8908,
      "Ġdetermine": 8909,
      "Ġragaz": 8910,
      "bal": 8911,
      "Ġopinion": 8912,
      "ĠDom": 8913,
      "ĠEinsatz": 8914,
      "Ġproducto": 8915,
      "cm": 8916,
      "Ġanz": 8917,
      "ĠWerk": 8918,
      "ĠMarkt": 8919,
      "Ġsleep": 8920,
      "cito": 8921,
      "quelle": 8922,
      "ĠFOR": 8923,
      "ungsver": 8924,
      "Ġcultura": 8925,
      "Please": 8926,
      "Ġexpression": 8927,
      "Ġgiov": 8928,
      "tazione": 8929,
      "reso": 8930,
      "Ġarchite": 8931,
      "CS": 8932,
      "cita": 8933,
      "ĠCharles": 8934,
      "wach": 8935,
      "issant": 8936,
      "Ã©p": 8937,
      "inden": 8938,
      "Ġeran": 8939,
      "Ġbat": 8940,
      "Ġcomenz": 8941,
      "Ġplatform": 8942,
      "Ġacced": 8943,
      "ĠprÃ³": 8944,
      "ĠPop": 8945,
      "Ġprocesses": 8946,
      "93": 8947,
      "Ġcampaign": 8948,
      "fortun": 8949,
      "gehen": 8950,
      "ĠRod": 8951,
      "alysis": 8952,
      "aya": 8953,
      "udem": 8954,
      "Ġleader": 8955,
      "Ġbot": 8956,
      "uren": 8957,
      "iling": 8958,
      "Ġclar": 8959,
      "Ġpersonali": 8960,
      "ĠNetz": 8961,
      "Ġsir": 8962,
      "mÃªme": 8963,
      "ivi": 8964,
      "Ġtick": 8965,
      "Ġprincipio": 8966,
      "zeitig": 8967,
      "aj": 8968,
      "Ġvue": 8969,
      "Ġtum": 8970,
      "Bon": 8971,
      "VER": 8972,
      "arf": 8973,
      "Ġmolti": 8974,
      "Ġ44": 8975,
      "presa": 8976,
      "contre": 8977,
      "ĠCli": 8978,
      "utation": 8979,
      "liess": 8980,
      "ĠTR": 8981,
      "!\"": 8982,
      "Ġrund": 8983,
      "Ġresponsable": 8984,
      "Ġsalv": 8985,
      "Ġaument": 8986,
      "Ġpian": 8987,
      "ĠSitu": 8988,
      "Ġactu": 8989,
      "ftrag": 8990,
      "Ġfiles": 8991,
      "Ġmiglior": 8992,
      "Ġadult": 8993,
      "Ġconcent": 8994,
      "Ġpin": 8995,
      "ĠJosÃ©": 8996,
      "lungen": 8997,
      "ĠAmazon": 8998,
      "ashion": 8999,
      "Ãį": 9000,
      "Ã¶sung": 9001,
      "Ġorders": 9002,
      "Ġprue": 9003,
      "Ġstrutt": 9004,
      "rera": 9005,
      "ĠdÃ©m": 9006,
      "Ġouv": 9007,
      "arma": 9008,
      "Ġplaced": 9009,
      "icago": 9010,
      "hof": 9011,
      "Ġserait": 9012,
      "ĠDenn": 9013,
      "tails": 9014,
      "dess": 9015,
      "Ġanimal": 9016,
      "ĠWahl": 9017,
      "Ġcic": 9018,
      "Ġfilms": 9019,
      "ĠApple": 9020,
      "ĠKauf": 9021,
      "ĠAle": 9022,
      "nÃ©": 9023,
      "ĠdÃ¼r": 9024,
      "ĠFund": 9025,
      "Ġricon": 9026,
      "kom": 9027,
      "Ġbeispiel": 9028,
      "ĠMur": 9029,
      "socia": 9030,
      "New": 9031,
      "rare": 9032,
      "Ġstream": 9033,
      "Ġinfo": 9034,
      "Ġseront": 9035,
      "chnung": 9036,
      "Ġpetite": 9037,
      "ĠnÃ¤ch": 9038,
      "ritte": 9039,
      "Ġfear": 9040,
      "ĠauÃŁer": 9041,
      "Ġprovincia": 9042,
      "ĠWid": 9043,
      "Ġnearly": 9044,
      "duca": 9045,
      "Ġpense": 9046,
      "Ġmujer": 9047,
      "Ġspaz": 9048,
      "Ġ]": 9049,
      "orme": 9050,
      "Ġassign": 9051,
      "pero": 9052,
      "tamento": 9053,
      "ĠmayorÃŃa": 9054,
      "Ġsoprattutto": 9055,
      "Ġdato": 9056,
      "ĠParte": 9057,
      "igos": 9058,
      "ĠBol": 9059,
      "acters": 9060,
      "ĠÃ©lect": 9061,
      "Ġoficial": 9062,
      "ĠRepublic": 9063,
      "Ġalterna": 9064,
      "wel": 9065,
      "ĠInhalte": 9066,
      "jÃ¤hr": 9067,
      "ĠComun": 9068,
      "ĠWel": 9069,
      "Ġoverall": 9070,
      "Ġalternative": 9071,
      "ĠChurch": 9072,
      "akes": 9073,
      "Ġdream": 9074,
      "ĠðŁĺ": 9075,
      "Ġgruppo": 9076,
      "hil": 9077,
      "ĠST": 9078,
      "Ġdemocra": 9079,
      "ĠMig": 9080,
      "Ġpotenti": 9081,
      "Ġcrisis": 9082,
      "ĠPu": 9083,
      "Ġintra": 9084,
      "Ġrealidad": 9085,
      "which": 9086,
      "Ġpartner": 9087,
      "Ġneu": 9088,
      "riz": 9089,
      "Ġparce": 9090,
      "Ġcomunic": 9091,
      "lais": 9092,
      "Ġcostitu": 9093,
      "ĠDruck": 9094,
      "ĠJac": 9095,
      "ĠÃºltim": 9096,
      "Ġdisplay": 9097,
      "Ġreleased": 9098,
      "azine": 9099,
      "Ġnames": 9100,
      "Ġderiv": 9101,
      "ettu": 9102,
      "ĠPOR": 9103,
      "zos": 9104,
      "ez": 9105,
      "Ġpresence": 9106,
      "ĠAugen": 9107,
      "ranno": 9108,
      "Don": 9109,
      "81": 9110,
      "By": 9111,
      "Ġdecide": 9112,
      "Ġplanning": 9113,
      "Ġcorrespon": 9114,
      "Ġsuffer": 9115,
      "Ġpurposes": 9116,
      "ĠÅĵ": 9117,
      "Ġ400": 9118,
      ".</": 9119,
      "EST": 9120,
      "Ġguarante": 9121,
      "Ġcorps": 9122,
      "ureau": 9123,
      "ĠBecause": 9124,
      "Ġtrata": 9125,
      "angs": 9126,
      "rosoft": 9127,
      "Ġcostru": 9128,
      "Ġpermiti": 9129,
      "Ġdiritto": 9130,
      "Ġmoving": 9131,
      "aker": 9132,
      "ĠMany": 9133,
      "alisation": 9134,
      "iency": 9135,
      "ttamente": 9136,
      "Ġspend": 9137,
      "itet": 9138,
      "Ġsiti": 9139,
      "enna": 9140,
      "Ġnostri": 9141,
      "aled": 9142,
      "ĠTest": 9143,
      "2000": 9144,
      "Ġlum": 9145,
      "Ġbedeutet": 9146,
      "Ġsuccessful": 9147,
      "ĠdÃ¨s": 9148,
      "ĠFrench": 9149,
      "Ġ1986": 9150,
      "Mod": 9151,
      "Ġsetting": 9152,
      "ĠMary": 9153,
      "PL": 9154,
      "Ġeinges": 9155,
      "haft": 9156,
      ".Â»": 9157,
      "ĠFest": 9158,
      "ĠIls": 9159,
      "ĠSociety": 9160,
      "hard": 9161,
      "tifs": 9162,
      "Ġcoach": 9163,
      "ccion": 9164,
      "treten": 9165,
      "ĠMein": 9166,
      "Ġantig": 9167,
      "Da": 9168,
      "Ġfrente": 9169,
      "chÃ¨": 9170,
      "Ġfemme": 9171,
      "ĠBig": 9172,
      "Ġscen": 9173,
      "Ġsn": 9174,
      "icken": 9175,
      "asp": 9176,
      "ĠLife": 9177,
      "Ġreprodu": 9178,
      "Ġingl": 9179,
      "Ġpersonnel": 9180,
      "ĠSach": 9181,
      "Ġindependent": 9182,
      "ĠPS": 9183,
      "ÃŃsticas": 9184,
      "Ġbesser": 9185,
      "ĠhÃ¤uf": 9186,
      "Ġadvice": 9187,
      "laces": 9188,
      "gens": 9189,
      "ĠConf": 9190,
      "Ġreference": 9191,
      "Ġspir": 9192,
      "haf": 9193,
      "Ġconnection": 9194,
      "DI": 9195,
      "inese": 9196,
      "tschafts": 9197,
      "Ġunters": 9198,
      "Ġbalance": 9199,
      "ĠPed": 9200,
      "uite": 9201,
      "ĠLehr": 9202,
      "Ġcontains": 9203,
      "Ġaquell": 9204,
      "ĠOrt": 9205,
      "ĠqualitÃł": 9206,
      "bio": 9207,
      "ĠNic": 9208,
      "Ġelabor": 9209,
      "Ste": 9210,
      "lay": 9211,
      "ĠGob": 9212,
      "Ġconvin": 9213,
      "Ġregarding": 9214,
      "ĠKÃ¶n": 9215,
      "Ġfle": 9216,
      "2006": 9217,
      "ĠNamen": 9218,
      "itat": 9219,
      "ctamente": 9220,
      "Ġsette": 9221,
      "ĠFried": 9222,
      "ĠMain": 9223,
      "aup": 9224,
      "ĠGreat": 9225,
      "iez": 9226,
      "Ġmein": 9227,
      "kungen": 9228,
      "ĠLuft": 9229,
      "Ġdepos": 9230,
      "Ġdecor": 9231,
      "ĠFrancisco": 9232,
      "nehmens": 9233,
      "Ġsentido": 9234,
      "asta": 9235,
      "Ġraison": 9236,
      "was": 9237,
      "Ġdivent": 9238,
      "platz": 9239,
      "grad": 9240,
      "ĠDich": 9241,
      "Ġnombreux": 9242,
      "Ġring": 9243,
      "ĠSund": 9244,
      "OU": 9245,
      "akter": 9246,
      "Ġborn": 9247,
      "Ġdifficile": 9248,
      "ĠLandes": 9249,
      "hu": 9250,
      "Ġsemana": 9251,
      "DS": 9252,
      "ĠÃºltimo": 9253,
      "idential": 9254,
      "ĠAfrica": 9255,
      "bsites": 9256,
      "ami": 9257,
      "ĠGood": 9258,
      "Ġcuanto": 9259,
      "Ġaufgrund": 9260,
      "ĠGeschÃ¤fts": 9261,
      "Ġsede": 9262,
      "itÃ¤ts": 9263,
      "ĠFel": 9264,
      "Ġminimum": 9265,
      "ĠMÃ¤r": 9266,
      "Ġzie": 9267,
      "icks": 9268,
      "tigkeit": 9269,
      "Ġschools": 9270,
      "riften": 9271,
      "ĠCR": 9272,
      "Ġfas": 9273,
      "Ġslight": 9274,
      "ĠTambiÃ©n": 9275,
      "Ġdipl": 9276,
      "avoir": 9277,
      "ĠMai": 9278,
      "%.": 9279,
      "Ġexplo": 9280,
      "Ġsopra": 9281,
      "hern": 9282,
      "Ġstraight": 9283,
      "Ġfalta": 9284,
      "Ġdisposi": 9285,
      "cci": 9286,
      "ancing": 9287,
      "Ġobtain": 9288,
      "ÃŃtulo": 9289,
      "2009": 9290,
      "Ġcres": 9291,
      "Ġreun": 9292,
      "Ġlev": 9293,
      "ĠAcadem": 9294,
      "Ġfolgenden": 9295,
      "ĠÃītats": 9296,
      "ximo": 9297,
      "Ġfinale": 9298,
      "Ġterre": 9299,
      "Ġdeutlich": 9300,
      "Ġacceso": 9301,
      "ĠOver": 9302,
      "Ġllegar": 9303,
      "redit": 9304,
      "ĠMedia": 9305,
      "Ġclearly": 9306,
      "ivent": 9307,
      "Ġfresh": 9308,
      "Ġfeet": 9309,
      "ĠGuer": 9310,
      "iring": 9311,
      "istan": 9312,
      "ĠBan": 9313,
      "âĢĺ": 9314,
      "2003": 9315,
      "Ġcantidad": 9316,
      "Ġprocedure": 9317,
      "Ġproces": 9318,
      "Ġfamilies": 9319,
      "ĠUse": 9320,
      "Ġcore": 9321,
      "Ġelles": 9322,
      "Ġtalking": 9323,
      "Bei": 9324,
      "ĠJugend": 9325,
      "Ġpasser": 9326,
      "Ġfans": 9327,
      "Ġbenefit": 9328,
      "lad": 9329,
      "isÃ©": 9330,
      "zuf": 9331,
      "ducciÃ³n": 9332,
      "Ġspent": 9333,
      "Ġmobil": 9334,
      "Ġearth": 9335,
      "Ġpaso": 9336,
      "Ġmira": 9337,
      "PO": 9338,
      "ĠInstitute": 9339,
      "ĠtenÃŃa": 9340,
      "article": 9341,
      "Amer": 9342,
      "iosa": 9343,
      "ĠsantÃ©": 9344,
      "Ġspesso": 9345,
      "ĠDra": 9346,
      "Ġhour": 9347,
      "91": 9348,
      "ĠLiefer": 9349,
      "iven": 9350,
      "ĠSuch": 9351,
      "Ġplane": 9352,
      "wertung": 9353,
      "ĠcÃ´tÃ©": 9354,
      "2015": 9355,
      "Ġbisog": 9356,
      "ĠAustralia": 9357,
      "umm": 9358,
      "Ġschwer": 9359,
      "Ġnoti": 9360,
      "Ġreplace": 9361,
      "chem": 9362,
      "Ġmoral": 9363,
      "âĢľ.": 9364,
      "alism": 9365,
      "Ġnorth": 9366,
      "EG": 9367,
      "2005": 9368,
      "Ġgust": 9369,
      "regist": 9370,
      "how": 9371,
      "ĠRiver": 9372,
      "ĠUntersuch": 9373,
      "mientos": 9374,
      "proz": 9375,
      "Ġalco": 9376,
      "tura": 9377,
      "Ġappel": 9378,
      "uela": 9379,
      "ĠComitÃ©": 9380,
      "Ġhemos": 9381,
      "ound": 9382,
      "fÃ¤l": 9383,
      "ĠGR": 9384,
      "Ġdiversi": 9385,
      "Ġdaugh": 9386,
      "program": 9387,
      "Ġcolleg": 9388,
      "ĠStandard": 9389,
      "Ġhyper": 9390,
      "ĠDecember": 9391,
      "ĠPi": 9392,
      "erez": 9393,
      "ĠOffice": 9394,
      "Ġimportance": 9395,
      "fel": 9396,
      "Ġcircul": 9397,
      "Ġmercado": 9398,
      "gÃ©": 9399,
      "lei": 9400,
      "ĠFab": 9401,
      "Ġspot": 9402,
      "Ġexchange": 9403,
      "ystem": 9404,
      "Ġwants": 9405,
      "ĠBor": 9406,
      "Ġlista": 9407,
      "Ġmini": 9408,
      "2007": 9409,
      "Ġfederal": 9410,
      "Ġfich": 9411,
      "2008": 9412,
      "Ġspread": 9413,
      "Ġgrowing": 9414,
      "nos": 9415,
      "!)": 9416,
      "Ġposts": 9417,
      "ĠpÃºblico": 9418,
      "Ġoportun": 9419,
      "ĠFree": 9420,
      "Ġgros": 9421,
      "Ġdefinitely": 9422,
      "ĠPri": 9423,
      "ĠOh": 9424,
      "ĠdarÃ¼ber": 9425,
      "Res": 9426,
      "Ġlivello": 9427,
      "Ġvaleur": 9428,
      "ĸł": 9429,
      "ĠVerfÃ¼gung": 9430,
      "haupt": 9431,
      "Au": 9432,
      "ĠDia": 9433,
      "Ġcamera": 9434,
      "Ġrule": 9435,
      "trans": 9436,
      "Ġwoll": 9437,
      "Ġunas": 9438,
      "Ġsais": 9439,
      "ĠthÃ©": 9440,
      "olid": 9441,
      "Ġhizo": 9442,
      "ĠLeague": 9443,
      "Br": 9444,
      "Ġserious": 9445,
      "taire": 9446,
      "Ġcouldn": 9447,
      "don": 9448,
      "Ġsympt": 9449,
      "Ġ1985": 9450,
      "Na": 9451,
      "ĠSozial": 9452,
      "ĠVerwendung": 9453,
      "Ã¶ffentlich": 9454,
      "minister": 9455,
      "ĠBud": 9456,
      "Ġly": 9457,
      "Ġverst": 9458,
      "into": 9459,
      "rimonio": 9460,
      "Ġenvi": 9461,
      "ĠFestival": 9462,
      "ĠĂ": 9463,
      "aren": 9464,
      "Ġinput": 9465,
      "Ġsteps": 9466,
      "interno": 9467,
      "gence": 9468,
      "schaften": 9469,
      "Ġweiteren": 9470,
      "2020": 9471,
      "Ġentr": 9472,
      "Ġsuc": 9473,
      "iko": 9474,
      "hlt": 9475,
      "Ġdivid": 9476,
      "Ġmesure": 9477,
      "ĠAntonio": 9478,
      "Ġ120": 9479,
      "Ġmoved": 9480,
      "Ġsegundo": 9481,
      "Ġbeispielsweise": 9482,
      "Ġbottom": 9483,
      "Ġexcep": 9484,
      "Ġerforderlich": 9485,
      "ĠLim": 9486,
      "ĠRen": 9487,
      "uting": 9488,
      "Ġesterni": 9489,
      "zionali": 9490,
      "Ġcabe": 9491,
      "ĠSatz": 9492,
      "Ġnutzen": 9493,
      "Ġhusband": 9494,
      "Ġentste": 9495,
      "nent": 9496,
      "Ġessential": 9497,
      "Ġcharacters": 9498,
      "ĠQuesto": 9499,
      "itario": 9500,
      "itÃ¤ten": 9501,
      "cell": 9502,
      "long": 9503,
      "Ġmg": 9504,
      "Ġmessages": 9505,
      "Ġdeutschen": 9506,
      "Reg": 9507,
      "Ġbekannt": 9508,
      "qual": 9509,
      "Ġguy": 9510,
      "ministr": 9511,
      "ĠRu": 9512,
      "Ġatte": 9513,
      "tti": 9514,
      "guien": 9515,
      "Ġfollows": 9516,
      "Ġtermine": 9517,
      "ĠRichard": 9518,
      "edes": 9519,
      "ĠDann": 9520,
      "Ġdry": 9521,
      "ĠcrÃ©d": 9522,
      "page": 9523,
      "Ġkosten": 9524,
      "chter": 9525,
      "ĠMob": 9526,
      "2004": 9527,
      "ĠEX": 9528,
      "tification": 9529,
      "rough": 9530,
      "Ġdetto": 9531,
      "Ġfoto": 9532,
      "ffee": 9533,
      "Ġvote": 9534,
      "Ġdefe": 9535,
      "ultimo": 9536,
      "Ġoffered": 9537,
      "ĠLord": 9538,
      "Ġhid": 9539,
      "ĠFinanz": 9540,
      "Ġlab": 9541,
      "Ġfamiglia": 9542,
      "gy": 9543,
      "ĠvidÃ©": 9544,
      "reas": 9545,
      "ĠdÃ©couv": 9546,
      "Ġnutri": 9547,
      "arbeiten": 9548,
      "Ġoben": 9549,
      "Inter": 9550,
      "mobil": 9551,
      "Ġpodemos": 9552,
      "Ġpagina": 9553,
      "Ġobjetivo": 9554,
      "Ġocur": 9555,
      "aison": 9556,
      "Ġsommes": 9557,
      "izion": 9558,
      "Â«,": 9559,
      "lymp": 9560,
      "Ġpueblo": 9561,
      "Ġmeta": 9562,
      "Ġformat": 9563,
      "CD": 9564,
      "Ġapr": 9565,
      "Ġeigene": 9566,
      "ĠgrÃ¶ÃŁ": 9567,
      "Ġmusical": 9568,
      "2002": 9569,
      "Ġequival": 9570,
      "hle": 9571,
      "ĠArm": 9572,
      "ĠCourt": 9573,
      "Ġow": 9574,
      "Ġcliente": 9575,
      "Ġ(\"": 9576,
      "Ġconsequ": 9577,
      "ettes": 9578,
      "Ġdip": 9579,
      "ains": 9580,
      "ĠFam": 9581,
      "ĠAnti": 9582,
      "||": 9583,
      "Ġexpand": 9584,
[...]
